{
  "merges": {
    "(101, 32)": 256,
    "(100, 32)": 257,
    "(116, 104)": 258,
    "(46, 32)": 259,
    "(116, 32)": 260,
    "(115, 32)": 261,
    "(97, 110)": 262,
    "(101, 114)": 263,
    "(121, 32)": 264,
    "(101, 257)": 265,
    "(111, 32)": 266,
    "(105, 110)": 267,
    "(258, 256)": 268,
    "(104, 256)": 269,
    "(119, 97)": 270,
    "(44, 32)": 271,
    "(262, 257)": 272,
    "(111, 117)": 273,
    "(97, 32)": 274,
    "(116, 266)": 275,
    "(101, 110)": 276,
    "(270, 261)": 277,
    "(97, 114)": 278,
    "(103, 32)": 279,
    "(263, 32)": 280,
    "(111, 110)": 281,
    "(108, 32)": 282,
    "(104, 97)": 283,
    "(111, 114)": 284,
    "(267, 279)": 285,
    "(111, 109)": 286,
    "(259, 32)": 287,
    "(105, 116)": 288,
    "(32, 268)": 289,
    "(115, 97)": 290,
    "(104, 105)": 291,
    "(114, 101)": 292,
    "(115, 116)": 293,
    "(97, 108)": 294,
    "(108, 111)": 295,
    "(105, 260)": 296,
    "(101, 108)": 297,
    "(105, 100)": 298,
    "(84, 269)": 299,
    "(105, 114)": 300,
    "(105, 108)": 301,
    "(97, 260)": 302,
    "(265, 275)": 303,
    "(259, 72)": 304,
    "(32, 274)": 305,
    "(97, 99)": 306,
    "(259, 83)": 307,
    "(116, 105)": 308,
    "(104, 280)": 309,
    "(115, 269)": 310,
    "(118, 263)": 311,
    "(107, 32)": 312,
    "(108, 256)": 313,
    "(263, 256)": 314,
    "(304, 256)": 315,
    "(115, 266)": 316,
    "(114, 105)": 317,
    "(111, 102)": 318,
    "(100, 97)": 319,
    "(108, 97)": 320,
    "(276, 32)": 321,
    "(101, 264)": 322,
    "(119, 32)": 323,
    "(108, 257)": 324,
    "(101, 100)": 325,
    "(112, 112)": 326,
    "(79, 110)": 327,
    "(307, 269)": 328,
    "(103, 104)": 329,
    "(121, 271)": 330,
    "(98, 101)": 331,
    "(262, 32)": 332,
    "(97, 109)": 333,
    "(115, 104)": 334,
    "(116, 111)": 335,
    "(291, 261)": 336,
    "(119, 105)": 337,
    "(117, 110)": 338,
    "(107, 265)": 339,
    "(117, 112)": 340,
    "(108, 101)": 341,
    "(102, 284)": 342,
    "(34, 32)": 343,
    "(108, 105)": 344,
    "(273, 110)": 345,
    "(283, 257)": 346,
    "(117, 260)": 347,
    "(311, 264)": 348,
    "(288, 116)": 349,
    "(110, 101)": 350,
    "(99, 104)": 351,
    "(258, 302)": 352,
    "(337, 258)": 353,
    "(115, 101)": 354,
    "(109, 32)": 355,
    "(99, 256)": 356,
    "(108, 264)": 357,
    "(349, 313)": 358,
    "(98, 111)": 359,
    "(33, 32)": 360,
    "(277, 274)": 361,
    "(109, 101)": 362,
    "(108, 358)": 363,
    "(259, 327)": 364,
    "(110, 111)": 365,
    "(318, 32)": 366,
    "(119, 104)": 367,
    "(97, 100)": 368,
    "(273, 324)": 369,
    "(259, 84)": 370,
    "(115, 109)": 371,
    "(114, 111)": 372,
    "(118, 256)": 373,
    "(107, 256)": 374,
    "(286, 32)": 375,
    "(258, 322)": 376,
    "(283, 326)": 377,
    "(265, 272)": 378,
    "(112, 320)": 379,
    "(259, 299)": 380,
    "(267, 289)": 381,
    "(97, 115)": 382,
    "(267, 103)": 383,
    "(103, 300)": 384,
    "(258, 314)": 385,
    "(103, 101)": 386,
    "(105, 99)": 387,
    "(290, 298)": 388,
    "(271, 34)": 389,
    "(101, 99)": 390,
    "(116, 303)": 391,
    "(286, 101)": 392,
    "(102, 117)": 393,
    "(97, 116)": 394,
    "(294, 282)": 395,
    "(101, 120)": 396,
    "(115, 112)": 397,
    "(277, 316)": 398,
    "(345, 257)": 399,
    "(259, 73)": 400,
    "(353, 32)": 401,
    "(121, 273)": 402,
    "(119, 262)": 403,
    "(267, 32)": 404,
    "(102, 317)": 405,
    "(117, 114)": 406,
    "(384, 282)": 407,
    "(295, 111)": 408,
    "(405, 276)": 409,
    "(115, 260)": 410,
    "(276, 260)": 411,
    "(98, 105)": 412,
    "(97, 98)": 413,
    "(195, 162)": 414,
    "(414, 226)": 415,
    "(415, 130)": 416,
    "(416, 172)": 417,
    "(39, 261)": 418,
    "(287, 299)": 419,
    "(370, 104)": 420,
    "(319, 330)": 421,
    "(281, 305)": 422,
    "(281, 32)": 423,
    "(275, 268)": 424,
    "(306, 312)": 425,
    "(111, 108)": 426,
    "(371, 301)": 427,
    "(103, 111)": 428,
    "(105, 257)": 429,
    "(256, 272)": 430,
    "(385, 361)": 431,
    "(258, 101)": 432,
    "(119, 314)": 433,
    "(264, 272)": 434,
    "(97, 103)": 435,
    "(340, 422)": 436,
    "(273, 260)": 437,
    "(99, 278)": 438,
    "(32, 272)": 439,
    "(356, 436)": 440,
    "(440, 308)": 441,
    "(409, 100)": 442,
    "(281, 256)": 443,
    "(118, 280)": 444,
    "(258, 285)": 445,
    "(342, 32)": 446,
    "(261, 272)": 447,
    "(39, 260)": 448,
    "(276, 116)": 449,
    "(343, 32)": 450,
    "(98, 347)": 451,
    "(111, 119)": 452,
    "(107, 101)": 453,
    "(400, 260)": 454,
    "(388, 389)": 455,
    "(265, 268)": 456,
    "(101, 278)": 457,
    "(329, 260)": 458,
    "(115, 392)": 459,
    "(115, 256)": 460,
    "(290, 429)": 461,
    "(109, 264)": 462,
    "(412, 279)": 463,
    "(403, 391)": 464,
    "(101, 115)": 465,
    "(109, 256)": 466,
    "(97, 374)": 467,
    "(420, 322)": 468,
    "(112, 32)": 469,
    "(379, 121)": 470,
    "(271, 272)": 471,
    "(363, 407)": 472,
    "(104, 297)": 473,
    "(402, 32)": 474,
    "(105, 109)": 475,
    "(105, 261)": 476,
    "(112, 108)": 477,
    "(364, 441)": 478,
    "(117, 109)": 479,
    "(97, 282)": 480,
    "(103, 114)": 481,
    "(256, 421)": 482,
    "(119, 411)": 483,
    "(286, 256)": 484,
    "(277, 348)": 485,
    "(396, 99)": 486,
    "(100, 100)": 487,
    "(119, 369)": 488,
    "(270, 121)": 489,
    "(98, 256)": 490,
    "(393, 282)": 491,
    "(486, 288)": 492,
    "(258, 263)": 493,
    "(115, 298)": 494,
    "(104, 111)": 495,
    "(117, 99)": 496,
    "(116, 280)": 497,
    "(408, 339)": 498,
    "(73, 32)": 499,
    "(102, 101)": 500,
    "(258, 280)": 501,
    "(319, 264)": 502,
    "(459, 445)": 503,
    "(362, 271)": 504,
    "(110, 32)": 505,
    "(283, 260)": 506,
    "(110, 448)": 507,
    "(105, 115)": 508,
    "(109, 117)": 509,
    "(99, 369)": 510,
    "(293, 278)": 511,
    "(350, 323)": 512,
    "(102, 297)": 513,
    "(97, 117)": 514,
    "(102, 114)": 515,
    "(278, 399)": 516,
    "(112, 278)": 517,
    "(118, 265)": 518,
    "(111, 112)": 519,
    "(359, 264)": 520,
    "(98, 117)": 521,
    "(311, 121)": 522,
    "(271, 451)": 523,
    "(259, 65)": 524,
    "(103, 266)": 525,
    "(113, 117)": 526,
    "(119, 284)": 527,
    "(102, 32)": 528,
    "(101, 116)": 529,
    "(108, 265)": 530,
    "(97, 267)": 531,
    "(74, 111)": 532,
    "(318, 289)": 533,
    "(397, 390)": 534,
    "(296, 277)": 535,
    "(267, 257)": 536,
    "(351, 32)": 537,
    "(116, 114)": 538,
    "(290, 119)": 539,
    "(107, 285)": 540,
    "(108, 100)": 541,
    "(110, 333)": 542,
    "(513, 260)": 543,
    "(111, 111)": 544,
    "(534, 105)": 545,
    "(102, 338)": 546,
    "(273, 116)": 547,
    "(270, 108)": 548,
    "(116, 116)": 549,
    "(111, 324)": 550,
    "(377, 264)": 551,
    "(109, 375)": 552,
    "(301, 282)": 553,
    "(98, 425)": 554,
    "(97, 261)": 555,
    "(100, 390)": 556,
    "(108, 330)": 557,
    "(259, 69)": 558,
    "(109, 284)": 559,
    "(329, 116)": 560,
    "(66, 347)": 561,
    "(114, 332)": 562,
    "(262, 100)": 563,
    "(556, 298)": 564,
    "(291, 109)": 565,
    "(291, 355)": 566,
    "(109, 368)": 567,
    "(367, 321)": 568,
    "(271, 268)": 569,
    "(87, 104)": 570,
    "(306, 104)": 571,
    "(283, 373)": 572,
    "(295, 119)": 573,
    "(100, 111)": 574,
    "(118, 101)": 575,
    "(300, 32)": 576,
    "(367, 266)": 577,
    "(102, 105)": 578,
    "(335, 386)": 579,
    "(478, 504)": 580,
    "(258, 383)": 581,
    "(117, 487)": 582,
    "(102, 399)": 583,
    "(382, 339)": 584,
    "(340, 32)": 585,
    "(567, 256)": 586,
    "(271, 310)": 587,
    "(112, 114)": 588,
    "(335, 111)": 589,
    "(116, 292)": 590,
    "(333, 256)": 591,
    "(293, 114)": 592,
    "(287, 327)": 593,
    "(98, 114)": 594,
    "(345, 100)": 595,
    "(542, 265)": 596,
    "(539, 305)": 597,
    "(428, 260)": 598,
    "(564, 303)": 599,
    "(258, 321)": 600,
    "(98, 300)": 601,
    "(582, 276)": 602,
    "(427, 378)": 603,
    "(109, 111)": 604,
    "(290, 323)": 605,
    "(545, 480)": 606,
    "(281, 289)": 607,
    "(112, 101)": 608,
    "(432, 576)": 609,
    "(344, 374)": 610,
    "(74, 425)": 611,
    "(489, 261)": 612,
    "(46, 450)": 613,
    "(346, 274)": 614,
    "(99, 273)": 615,
    "(287, 83)": 616,
    "(511, 391)": 617,
    "(278, 100)": 618,
    "(379, 264)": 619,
    "(117, 103)": 620,
    "(393, 108)": 621,
    "(100, 452)": 622,
    "(270, 116)": 623,
    "(470, 285)": 624,
    "(106, 111)": 625,
    "(294, 612)": 626,
    "(306, 107)": 627,
    "(104, 263)": 628,
    "(99, 295)": 629,
    "(326, 265)": 630,
    "(99, 332)": 631,
    "(364, 482)": 632,
    "(258, 273)": 633,
    "(99, 591)": 634,
    "(115, 406)": 635,
    "(386, 260)": 636,
    "(101, 112)": 637,
    "(435, 531)": 638,
    "(97, 373)": 639,
    "(417, 197)": 640,
    "(640, 147)": 641,
    "(108, 121)": 642,
    "(118, 449)": 643,
    "(119, 506)": 644,
    "(258, 262)": 645,
    "(270, 264)": 646,
    "(256, 268)": 647,
    "(350, 444)": 648,
    "(301, 264)": 649,
    "(101, 261)": 650,
    "(100, 105)": 651,
    "(101, 271)": 652,
    "(115, 107)": 653,
    "(84, 104)": 654,
    "(522, 443)": 655,
    "(442, 261)": 656,
    "(115, 438)": 657,
    "(112, 347)": 658,
    "(417, 226)": 659,
    "(580, 431)": 660,
    "(104, 392)": 661,
    "(115, 111)": 662,
    "(615, 541)": 663,
    "(116, 467)": 664,
    "(532, 104)": 665,
    "(115, 338)": 666,
    "(101, 97)": 667,
    "(104, 457)": 668,
    "(117, 292)": 669,
    "(109, 467)": 670,
    "(100, 263)": 671,
    "(115, 484)": 672,
    "(417, 32)": 673,
    "(396, 477)": 674,
    "(674, 284)": 675,
    "(109, 286)": 676,
    "(365, 260)": 677,
    "(116, 261)": 678,
    "(413, 437)": 679,
    "(302, 268)": 680,
    "(105, 355)": 681,
    "(335, 266)": 682,
    "(473, 112)": 683,
    "(442, 115)": 684,
    "(33, 343)": 685,
    "(117, 410)": 686,
    "(360, 32)": 687,
    "(547, 494)": 688,
    "(315, 277)": 689,
    "(116, 265)": 690,
    "(432, 355)": 691,
    "(593, 482)": 692,
    "(97, 293)": 693,
    "(99, 292)": 694,
    "(428, 111)": 695,
    "(117, 329)": 696,
    "(99, 111)": 697,
    "(110, 105)": 698,
    "(269, 277)": 699,
    "(602, 557)": 700,
    "(295, 118)": 701,
    "(659, 132)": 702,
    "(702, 162)": 703,
    "(108, 281)": 704,
    "(265, 309)": 705,
    "(294, 357)": 706,
    "(319, 121)": 707,
    "(308, 99)": 708,
    "(115, 297)": 709,
    "(325, 271)": 710,
    "(270, 114)": 711,
    "(98, 108)": 712,
    "(109, 332)": 713,
    "(633, 458)": 714,
    "(102, 536)": 715,
    "(76, 496)": 716,
    "(320, 696)": 717,
    "(570, 321)": 718,
    "(438, 101)": 719,
    "(454, 277)": 720,
    "(466, 431)": 721,
    "(473, 469)": 722,
    "(33, 450)": 723,
    "(112, 117)": 724,
    "(116, 418)": 725,
    "(413, 98)": 726,
    "(101, 118)": 727,
    "(72, 256)": 728,
    "(293, 97)": 729,
    "(398, 492)": 730,
    "(645, 339)": 731,
    "(119, 101)": 732,
    "(495, 323)": 733,
    "(663, 507)": 734,
    "(310, 277)": 735,
    "(259, 561)": 736,
    "(278, 32)": 737,
    "(104, 273)": 738,
    "(70, 114)": 739,
    "(377, 121)": 740,
    "(112, 111)": 741,
    "(103, 618)": 742,
    "(109, 98)": 743,
    "(104, 620)": 744,
    "(262, 260)": 745,
    "(387, 107)": 746,
    "(107, 512)": 747,
    "(99, 294)": 748,
    "(342, 101)": 749,
    "(116, 119)": 750,
    "(259, 77)": 751,
    "(101, 282)": 752,
    "(273, 257)": 753,
    "(365, 323)": 754,
    "(100, 264)": 755,
    "(308, 466)": 756,
    "(265, 352)": 757,
    "(111, 501)": 758,
    "(281, 101)": 759,
    "(333, 32)": 760,
    "(116, 317)": 761,
    "(262, 103)": 762,
    "(272, 268)": 763,
    "(412, 103)": 764,
    "(100, 298)": 765,
    "(368, 643)": 766,
    "(271, 316)": 767,
    "(102, 497)": 768,
    "(258, 32)": 769,
    "(259, 34)": 770,
    "(668, 257)": 771,
    "(112, 292)": 772,
    "(112, 260)": 773,
    "(287, 34)": 774,
    "(99, 286)": 775,
    "(571, 32)": 776,
    "(116, 101)": 777,
    "(110, 264)": 778,
    "(342, 305)": 779,
    "(678, 366)": 780,
    "(100, 266)": 781,
    "(308, 282)": 782,
    "(509, 537)": 783,
    "(115, 115)": 784,
    "(102, 102)": 785,
    "(579, 493)": 786,
    "(99, 114)": 787,
    "(267, 305)": 788,
    "(46, 343)": 789,
    "(287, 65)": 790,
    "(99, 291)": 791,
    "(665, 505)": 792,
    "(99, 514)": 793,
    "(701, 303)": 794,
    "(271, 269)": 795,
    "(265, 274)": 796,
    "(331, 514)": 797,
    "(750, 266)": 798,
    "(101, 469)": 799,
    "(623, 351)": 800,
    "(477, 306)": 801,
    "(119, 291)": 802,
    "(103, 105)": 803,
    "(117, 115)": 804,
    "(341, 278)": 805,
    "(338, 782)": 806,
    "(114, 32)": 807,
    "(353, 289)": 808,
    "(559, 256)": 809,
    "(334, 32)": 810,
    "(103, 292)": 811,
    "(354, 256)": 812,
    "(114, 338)": 813,
    "(267, 494)": 814,
    "(515, 286)": 815,
    "(108, 282)": 816,
    "(453, 773)": 817,
    "(119, 281)": 818,
    "(284, 32)": 819,
    "(371, 395)": 820,
    "(295, 780)": 821,
    "(629, 115)": 822,
    "(106, 686)": 823,
    "(797, 308)": 824,
    "(478, 721)": 825,
    "(363, 520)": 826,
    "(112, 387)": 827,
    "(353, 305)": 828,
    "(365, 708)": 829,
    "(271, 641)": 830,
    "(109, 262)": 831,
    "(99, 426)": 832,
    "(546, 32)": 833,
    "(103, 639)": 834,
    "(288, 256)": 835,
    "(105, 528)": 836,
    "(516, 268)": 837,
    "(479, 112)": 838,
    "(293, 284)": 839,
    "(97, 122)": 840,
    "(360, 327)": 841,
    "(285, 268)": 842,
    "(328, 277)": 843,
    "(112, 317)": 844,
    "(716, 264)": 845,
    "(377, 434)": 846,
    "(581, 261)": 847,
    "(273, 261)": 848,
    "(267, 100)": 849,
    "(121, 457)": 850,
    "(111, 98)": 851,
    "(622, 110)": 852,
    "(748, 530)": 853,
    "(112, 97)": 854,
    "(104, 278)": 855,
    "(273, 329)": 856,
    "(341, 97)": 857,
    "(579, 501)": 858,
    "(515, 375)": 859,
    "(727, 321)": 860,
    "(109, 121)": 861,
    "(500, 297)": 862,
    "(257, 272)": 863,
    "(258, 476)": 864,
    "(63, 343)": 865,
    "(285, 272)": 866,
    "(76, 529)": 867,
    "(256, 277)": 868,
    "(275, 490)": 869,
    "(89, 273)": 870,
    "(517, 107)": 871,
    "(401, 309)": 872,
    "(98, 121)": 873,
    "(287, 77)": 874,
    "(395, 268)": 875,
    "(765, 507)": 876,
    "(99, 117)": 877,
    "(635, 844)": 878,
    "(111, 444)": 879,
    "(262, 475)": 880,
    "(97, 489)": 881,
    "(673, 32)": 882,
    "(68, 97)": 883,
    "(278, 256)": 884,
    "(335, 324)": 885,
    "(308, 362)": 886,
    "(269, 346)": 887,
    "(267, 424)": 888,
    "(120, 32)": 889,
    "(260, 272)": 890,
    "(288, 261)": 891,
    "(334, 267)": 892,
    "(352, 310)": 893,
    "(97, 104)": 894,
    "(526, 746)": 895,
    "(100, 101)": 896,
    "(112, 263)": 897,
    "(99, 484)": 898,
    "(98, 297)": 899,
    "(344, 518)": 900,
    "(331, 410)": 901,
    "(739, 375)": 902,
    "(601, 257)": 903,
    "(262, 121)": 904,
    "(766, 669)": 905,
    "(625, 121)": 906,
    "(549, 263)": 907,
    "(111, 323)": 908,
    "(115, 271)": 909,
    "(285, 275)": 910,
    "(558, 348)": 911,
    "(118, 285)": 912,
    "(101, 444)": 913,
    "(98, 264)": 914,
    "(293, 111)": 915,
    "(333, 840)": 916,
    "(102, 573)": 917,
    "(109, 435)": 918,
    "(290, 100)": 919,
    "(102, 341)": 920,
    "(413, 313)": 921,
    "(116, 406)": 922,
    "(99, 107)": 923,
    "(426, 357)": 924,
    "(588, 753)": 925,
    "(862, 285)": 926,
    "(110, 266)": 927,
    "(824, 491)": 928,
    "(100, 297)": 929,
    "(101, 109)": 930,
    "(258, 292)": 931,
    "(583, 274)": 932,
    "(102, 267)": 933,
    "(114, 264)": 934,
    "(695, 100)": 935,
    "(276, 100)": 936,
    "(325, 389)": 937,
    "(74, 262)": 938,
    "(77, 286)": 939,
    "(281, 103)": 940,
    "(500, 752)": 941,
    "(84, 681)": 942,
    "(99, 281)": 943,
    "(401, 336)": 944,
    "(102, 333)": 945,
    "(101, 121)": 946,
    "(815, 289)": 947,
    "(97, 646)": 948,
    "(100, 261)": 949,
    "(101, 447)": 950,
    "(278, 894)": 951,
    "(256, 275)": 952,
    "(519, 276)": 953,
    "(818, 671)": 954,
    "(44, 343)": 955,
    "(744, 103)": 956,
    "(364, 256)": 957,
    "(109, 97)": 958,
    "(102, 97)": 959,
    "(100, 292)": 960,
    "(475, 462)": 961,
    "(280, 272)": 962,
    "(331, 793)": 963,
    "(963, 460)": 964,
    "(101, 776)": 965,
    "(409, 257)": 966,
    "(365, 119)": 967,
    "(101, 655)": 968,
    "(295, 518)": 969,
    "(608, 519)": 970,
    "(388, 830)": 971,
    "(98, 627)": 972,
    "(271, 376)": 973,
    "(116, 263)": 974,
    "(119, 553)": 975,
    "(398, 551)": 976,
    "(101, 348)": 977,
    "(331, 103)": 978,
    "(548, 540)": 979,
    "(662, 423)": 980,
    "(63, 450)": 981,
    "(265, 296)": 982,
    "(287, 718)": 983,
    "(109, 273)": 984,
    "(427, 265)": 985,
    "(918, 387)": 986,
    "(402, 807)": 987,
    "(432, 109)": 988,
    "(870, 32)": 989,
    "(107, 303)": 990,
    "(312, 272)": 991,
    "(356, 431)": 992,
    "(867, 418)": 993,
    "(920, 323)": 994,
    "(719, 621)": 995,
    "(895, 357)": 996,
    "(260, 275)": 997,
    "(265, 336)": 998,
    "(372, 119)": 999,
    "(367, 314)": 1000,
    "(293, 553)": 1001,
    "(278, 595)": 1002,
    "(102, 544)": 1003,
    "(408, 540)": 1004,
    "(281, 448)": 1005,
    "(454, 361)": 1006,
    "(880, 294)": 1007,
    "(805, 110)": 1008,
    "(935, 873)": 1009,
    "(342, 289)": 1010,
    "(306, 101)": 1011,
    "(269, 510)": 1012,
    "(115, 105)": 1013,
    "(115, 315)": 1014,
    "(106, 838)": 1015,
    "(325, 315)": 1016,
    "(105, 101)": 1017,
    "(262, 99)": 1018,
    "(340, 439)": 1019,
    "(66, 851)": 1020,
    "(110, 257)": 1021,
    "(99, 341)": 1022,
    "(101, 522)": 1023,
    "(360, 83)": 1024,
    "(709, 102)": 1025,
    "(276, 289)": 1026,
    "(114, 726)": 1027,
    "(404, 309)": 1028,
    "(372, 286)": 1029,
    "(270, 497)": 1030,
    "(511, 690)": 1031,
    "(287, 654)": 1032,
    "(351, 101)": 1033,
    "(332, 275)": 1034,
    "(970, 313)": 1035,
    "(883, 508)": 1036,
    "(292, 368)": 1037,
    "(273, 114)": 1038,
    "(384, 108)": 1039,
    "(281, 279)": 1040,
    "(325, 328)": 1041,
    "(703, 261)": 1042,
    "(406, 256)": 1043,
    "(264, 275)": 1044,
    "(362, 743)": 1045,
    "(274, 463)": 1046,
    "(317, 458)": 1047,
    "(479, 462)": 1048,
    "(319, 257)": 1049,
    "(105, 356)": 1050,
    "(73, 39)": 1051,
    "(344, 990)": 1052,
    "(771, 274)": 1053,
    "(742, 276)": 1054,
    "(318, 528)": 1055,
    "(841, 441)": 1056,
    "(119, 256)": 1057,
    "(259, 87)": 1058,
    "(102, 301)": 1059,
    "(548, 339)": 1060,
    "(307, 700)": 1061,
    "(115, 261)": 1062,
    "(376, 433)": 1063,
    "(100, 429)": 1064,
    "(260, 366)": 1065,
    "(589, 312)": 1066,
    "(738, 354)": 1067,
    "(360, 728)": 1068,
    "(114, 117)": 1069,
    "(653, 121)": 1070,
    "(115, 526)": 1071,
    "(729, 264)": 1072,
    "(304, 280)": 1073,
    "(292, 1045)": 1074,
    "(97, 404)": 1075,
    "(481, 595)": 1076,
    "(382, 107)": 1077,
    "(589, 107)": 1078,
    "(397, 111)": 1079,
    "(978, 1034)": 1080,
    "(931, 256)": 1081,
    "(259, 74)": 1082,
    "(472, 596)": 1083,
    "(334, 278)": 1084,
    "(294, 108)": 1085,
    "(99, 394)": 1086,
    "(260, 268)": 1087,
    "(99, 97)": 1088,
    "(104, 563)": 1089,
    "(98, 97)": 1090,
    "(603, 455)": 1091,
    "(262, 312)": 1092,
    "(951, 32)": 1093,
    "(524, 261)": 1094,
    "(394, 256)": 1095,
    "(917, 263)": 1096,
    "(613, 299)": 1097,
    "(118, 111)": 1098,
    "(111, 493)": 1099,
    "(359, 769)": 1100,
    "(107, 754)": 1101,
    "(292, 97)": 1102,
    "(622, 505)": 1103,
    "(377, 276)": 1104,
    "(270, 115)": 1105,
    "(516, 272)": 1106,
    "(465, 271)": 1107,
    "(350, 120)": 1108,
    "(666, 32)": 1109,
    "(335, 121)": 1110,
    "(110, 285)": 1111,
    "(558, 655)": 1112,
    "(261, 433)": 1113,
    "(335, 264)": 1114,
    "(408, 107)": 1115,
    "(102, 426)": 1116,
    "(276, 906)": 1117,
    "(310, 510)": 1118,
    "(309, 552)": 1119,
    "(764, 271)": 1120,
    "(268, 112)": 1121,
    "(704, 279)": 1122,
    "(287, 561)": 1123,
    "(616, 700)": 1124,
    "(724, 326)": 1125,
    "(104, 484)": 1126,
    "(116, 267)": 1127,
    "(99, 283)": 1128,
    "(73, 260)": 1129,
    "(334, 452)": 1130,
    "(98, 372)": 1131,
    "(273, 115)": 1132,
    "(877, 317)": 1133,
    "(742, 321)": 1134,
    "(58, 32)": 1135,
    "(293, 101)": 1136,
    "(310, 346)": 1137,
    "(296, 272)": 1138,
    "(259, 902)": 1139,
    "(281, 271)": 1140,
    "(811, 302)": 1141,
    "(102, 693)": 1142,
    "(761, 303)": 1143,
    "(103, 117)": 1144,
    "(114, 856)": 1145,
    "(99, 262)": 1146,
    "(98, 98)": 1147,
    "(301, 108)": 1148,
    "(87, 506)": 1149,
    "(483, 275)": 1150,
    "(1108, 260)": 1151,
    "(101, 328)": 1152,
    "(623, 263)": 1153,
    "(468, 433)": 1154,
    "(344, 293)": 1155,
    "(100, 278)": 1156,
    "(408, 312)": 1157,
    "(359, 302)": 1158,
    "(114, 97)": 1159,
    "(365, 487)": 1160,
    "(1081, 850)": 1161,
    "(98, 296)": 1162,
    "(76, 649)": 1163,
    "(651, 785)": 1164,
    "(104, 101)": 1165,
    "(101, 315)": 1166,
    "(925, 366)": 1167,
    "(521, 279)": 1168,
    "(108, 117)": 1169,
    "(287, 84)": 1170,
    "(719, 491)": 1171,
    "(296, 275)": 1172,
    "(304, 476)": 1173,
    "(496, 107)": 1174,
    "(331, 321)": 1175,
    "(1051, 355)": 1176,
    "(65, 110)": 1177,
    "(278, 109)": 1178,
    "(517, 312)": 1179,
    "(331, 634)": 1180,
    "(105, 848)": 1181,
    "(109, 105)": 1182,
    "(116, 294)": 1183,
    "(116, 693)": 1184,
    "(364, 992)": 1185,
    "(74, 627)": 1186,
    "(550, 713)": 1187,
    "(1020, 32)": 1188,
    "(481, 726)": 1189,
    "(509, 355)": 1190,
    "(115, 117)": 1191,
    "(938, 256)": 1192,
    "(259, 66)": 1193,
    "(695, 257)": 1194,
    "(259, 718)": 1195,
    "(483, 424)": 1196,
    "(477, 262)": 1197,
    "(101, 260)": 1198,
    "(664, 274)": 1199,
    "(601, 100)": 1200,
    "(121, 328)": 1201,
    "(427, 325)": 1202,
    "(496, 312)": 1203,
    "(283, 725)": 1204,
    "(717, 378)": 1205,
    "(470, 265)": 1206,
    "(111, 271)": 1207,
    "(97, 270)": 1208,
    "(102, 292)": 1209,
    "(115, 732)": 1210,
    "(276, 257)": 1211,
    "(102, 300)": 1212,
    "(298, 667)": 1213,
    "(258, 1145)": 1214,
    "(331, 737)": 1215,
    "(387, 101)": 1216,
    "(109, 281)": 1217,
    "(258, 394)": 1218,
    "(1059, 530)": 1219,
    "(297, 282)": 1220,
    "(352, 268)": 1221,
    "(524, 768)": 1222,
    "(831, 264)": 1223,
    "(400, 32)": 1224,
    "(1024, 269)": 1225,
    "(104, 406)": 1226,
    "(404, 336)": 1227,
    "(945, 649)": 1228,
    "(105, 274)": 1229,
    "(102, 357)": 1230,
    "(954, 491)": 1231,
    "(109, 434)": 1232,
    "(99, 312)": 1233,
    "(278, 317)": 1234,
    "(929, 387)": 1235,
    "(45, 32)": 1236,
    "(103, 320)": 1237,
    "(68, 368)": 1238,
    "(350, 325)": 1239,
    "(423, 309)": 1240,
    "(76, 301)": 1241,
    "(102, 382)": 1242,
    "(275, 525)": 1243,
    "(704, 103)": 1244,
    "(568, 310)": 1245,
    "(283, 912)": 1246,
    "(372, 375)": 1247,
    "(105, 122)": 1248,
    "(99, 320)": 1249,
    "(539, 289)": 1250,
    "(359, 119)": 1251,
    "(267, 312)": 1252,
    "(105, 103)": 1253,
    "(995, 357)": 1254,
    "(294, 557)": 1255,
    "(687, 299)": 1256,
    "(878, 115)": 1257,
    "(287, 728)": 1258,
    "(272, 455)": 1259,
    "(524, 1021)": 1260,
    "(109, 109)": 1261,
    "(403, 997)": 1262,
    "(100, 1005)": 1263,
    "(99, 302)": 1264,
    "(108, 108)": 1265,
    "(115, 573)": 1266,
    "(284, 116)": 1267,
    "(827, 339)": 1268,
    "(340, 289)": 1269,
    "(334, 265)": 1270,
    "(359, 120)": 1271,
    "(984, 460)": 1272,
    "(116, 97)": 1273,
    "(420, 321)": 1274,
    "(922, 110)": 1275,
    "(957, 502)": 1276,
    "(829, 265)": 1277,
    "(592, 762)": 1278,
    "(676, 462)": 1279,
    "(635, 256)": 1280,
    "(270, 518)": 1281,
    "(278, 264)": 1282,
    "(578, 810)": 1283,
    "(1164, 263)": 1284,
    "(83, 266)": 1285,
    "(107, 536)": 1286,
    "(382, 115)": 1287,
    "(117, 256)": 1288,
    "(275, 670)": 1289,
    "(803, 373)": 1290,
    "(545, 294)": 1291,
    "(731, 268)": 1292,
    "(276, 271)": 1293,
    "(453, 116)": 1294,
    "(112, 344)": 1295,
    "(1161, 261)": 1296,
    "(423, 336)": 1297,
    "(1036, 264)": 1298,
    "(550, 272)": 1299,
    "(588, 267)": 1300,
    "(295, 323)": 1301,
    "(105, 282)": 1302,
    "(297, 108)": 1303,
    "(352, 269)": 1304,
    "(318, 102)": 1305,
    "(98, 294)": 1306,
    "(611, 272)": 1307,
    "(97, 326)": 1308,
    "(504, 431)": 1309,
    "(602, 357)": 1310,
    "(543, 316)": 1311,
    "(453, 260)": 1312,
    "(121, 418)": 1313,
    "(584, 268)": 1314,
    "(282, 366)": 1315,
    "(370, 681)": 1316,
    "(275, 336)": 1317,
    "(293, 292)": 1318,
    "(292, 294)": 1319,
    "(292, 344)": 1320,
    "(1015, 265)": 1321,
    "(98, 284)": 1322,
    "(72, 476)": 1323,
    "(329, 32)": 1324,
    "(1135, 34)": 1325,
    "(292, 1295)": 1326,
    "(331, 342)": 1327,
    "(594, 639)": 1328,
    "(1027, 296)": 1329,
    "(986, 480)": 1330,
    "(307, 266)": 1331,
    "(46, 882)": 1332,
    "(115, 119)": 1333,
    "(109, 267)": 1334,
    "(665, 110)": 1335,
    "(100, 372)": 1336,
    "(578, 334)": 1337,
    "(723, 299)": 1338,
    "(331, 285)": 1339,
    "(101, 259)": 1340,
    "(268, 901)": 1341,
    "(698, 356)": 1342,
    "(100, 508)": 1343,
    "(351, 111)": 1344,
    "(301, 357)": 1345,
    "(413, 341)": 1346,
    "(367, 264)": 1347,
    "(115, 110)": 1348,
    "(354, 694)": 1349,
    "(437, 533)": 1350,
    "(100, 114)": 1351,
    "(116, 273)": 1352,
    "(119, 114)": 1353,
    "(102, 642)": 1354,
    "(426, 100)": 1355,
    "(334, 547)": 1356,
    "(643, 117)": 1357,
    "(517, 449)": 1358,
    "(100, 267)": 1359,
    "(297, 264)": 1360,
    "(365, 105)": 1361,
    "(119, 544)": 1362,
    "(521, 907)": 1363,
    "(290, 257)": 1364,
    "(493, 101)": 1365,
    "(307, 111)": 1366,
    "(77, 97)": 1367,
    "(475, 112)": 1368,
    "(1214, 289)": 1369,
    "(121, 315)": 1370,
    "(336, 552)": 1371,
    "(334, 908)": 1372,
    "(729, 121)": 1373,
    "(71, 114)": 1374,
    "(532, 256)": 1375,
    "(99, 344)": 1376,
    "(354, 321)": 1377,
    "(1125, 264)": 1378,
    "(72, 280)": 1379,
    "(83, 1093)": 1380,
    "(360, 299)": 1381,
    "(855, 257)": 1382,
    "(316, 783)": 1383,
    "(117, 101)": 1384,
    "(98, 413)": 1385,
    "(832, 284)": 1386,
    "(822, 280)": 1387,
    "(269, 488)": 1388,
    "(112, 105)": 1389,
    "(527, 107)": 1390,
    "(73, 725)": 1391,
    "(419, 472)": 1392,
    "(107, 349)": 1393,
    "(1136, 630)": 1394,
    "(1237, 257)": 1395,
    "(331, 749)": 1396,
    "(933, 706)": 1397,
    "(787, 121)": 1398,
    "(597, 463)": 1399,
    "(331, 116)": 1400,
    "(295, 1065)": 1401,
    "(285, 381)": 1402,
    "(959, 118)": 1403,
    "(352, 502)": 1404,
    "(688, 101)": 1405,
    "(98, 341)": 1406,
    "(604, 410)": 1407,
    "(698, 560)": 1408,
    "(105, 329)": 1409,
    "(354, 278)": 1410,
    "(775, 285)": 1411,
    "(385, 433)": 1412,
    "(346, 1175)": 1413,
    "(109, 394)": 1414,
    "(275, 572)": 1415,
    "(703, 260)": 1416,
    "(363, 1039)": 1417,
    "(800, 265)": 1418,
    "(76, 358)": 1419,
    "(103, 256)": 1420,
    "(568, 269)": 1421,
    "(590, 256)": 1422,
    "(331, 907)": 1423,
    "(1074, 263)": 1424,
    "(1284, 411)": 1425,
    "(84, 475)": 1426,
    "(593, 256)": 1427,
    "(400, 110)": 1428,
    "(548, 107)": 1429,
    "(115, 341)": 1430,
    "(749, 293)": 1431,
    "(481, 399)": 1432,
    "(84, 375)": 1433,
    "(1078, 289)": 1434,
    "(115, 284)": 1435,
    "(328, 464)": 1436,
    "(294, 316)": 1437,
    "(110, 263)": 1438,
    "(115, 283)": 1439,
    "(281, 357)": 1440,
    "(102, 111)": 1441,
    "(675, 647)": 1442,
    "(500, 323)": 1443,
    "(535, 756)": 1444,
    "(70, 267)": 1445,
    "(103, 333)": 1446,
    "(306, 256)": 1447,
    "(334, 369)": 1448,
    "(273, 100)": 1449,
    "(485, 492)": 1450,
    "(526, 101)": 1451,
    "(688, 256)": 1452,
    "(453, 799)": 1453,
    "(956, 265)": 1454,
    "(112, 281)": 1455,
    "(921, 275)": 1456,
    "(288, 418)": 1457,
    "(104, 667)": 1458,
    "(943, 1127)": 1459,
    "(1459, 117)": 1460,
    "(1219, 401)": 1461,
    "(114, 265)": 1462,
    "(1033, 263)": 1463,
    "(383, 271)": 1464,
    "(764, 103)": 1465,
    "(1373, 265)": 1466,
    "(1376, 743)": 1467,
    "(292, 571)": 1468,
    "(549, 285)": 1469,
    "(292, 706)": 1470,
    "(1116, 573)": 1471,
    "(67, 332)": 1472,
    "(89, 1107)": 1473,
    "(592, 940)": 1474,
    "(259, 78)": 1475,
    "(318, 305)": 1476,
    "(101, 122)": 1477,
    "(1400, 497)": 1478,
    "(621, 1315)": 1479,
    "(108, 753)": 1480,
    "(118, 508)": 1481,
    "(315, 464)": 1482,
    "(111, 99)": 1483,
    "(555, 269)": 1484,
    "(111, 107)": 1485,
    "(116, 300)": 1486,
    "(276, 778)": 1487,
    "(117, 460)": 1488,
    "(527, 324)": 1489,
    "(267, 275)": 1490,
    "(97, 768)": 1491,
    "(341, 784)": 1492,
    "(730, 325)": 1493,
    "(697, 311)": 1494,
    "(102, 372)": 1495,
    "(354, 930)": 1496,
    "(380, 472)": 1497,
    "(495, 630)": 1498,
    "(308, 281)": 1499,
    "(791, 541)": 1500,
    "(98, 1102)": 1501,
    "(269, 464)": 1502,
    "(100, 280)": 1503,
    "(350, 278)": 1504,
    "(711, 355)": 1505,
    "(366, 309)": 1506,
    "(468, 395)": 1507,
    "(335, 119)": 1508,
    "(654, 322)": 1509,
    "(915, 630)": 1510,
    "(574, 284)": 1511,
    "(115, 595)": 1512,
    "(554, 275)": 1513,
    "(581, 115)": 1514,
    "(403, 690)": 1515,
    "(767, 269)": 1516,
    "(657, 378)": 1517,
    "(479, 98)": 1518,
    "(421, 268)": 1519,
    "(33, 882)": 1520,
    "(459, 443)": 1521,
    "(290, 301)": 1522,
    "(911, 502)": 1523,
    "(933, 105)": 1524,
    "(100, 317)": 1525,
    "(857, 575)": 1526,
    "(461, 1009)": 1527,
    "(270, 288)": 1528,
    "(381, 871)": 1529,
    "(1242, 260)": 1530,
    "(107, 350)": 1531,
    "(1368, 1267)": 1532,
    "(747, 352)": 1533,
    "(594, 97)": 1534,
    "(1077, 937)": 1535,
    "(293, 263)": 1536,
    "(538, 121)": 1537,
    "(100, 1018)": 1538,
    "(813, 32)": 1539,
    "(272, 296)": 1540,
    "(814, 101)": 1541,
    "(916, 285)": 1542,
    "(317, 560)": 1543,
    "(854, 308)": 1544,
    "(538, 1203)": 1545,
    "(287, 74)": 1546,
    "(386, 1469)": 1547,
    "(1056, 1309)": 1548,
    "(112, 372)": 1549,
    "(1139, 600)": 1550,
    "(63, 32)": 1551,
    "(915, 326)": 1552,
    "(1385, 264)": 1553,
    "(578, 103)": 1554,
    "(110, 97)": 1555,
    "(619, 401)": 1556,
    "(1064, 677)": 1557,
    "(524, 816)": 1558,
    "(281, 569)": 1559,
    "(772, 116)": 1560,
    "(584, 309)": 1561,
    "(435, 1075)": 1562,
    "(813, 1111)": 1563,
    "(118, 465)": 1564,
    "(428, 285)": 1565,
    "(319, 100)": 1566,
    "(107, 967)": 1567,
    "(559, 101)": 1568,
    "(98, 325)": 1569,
    "(290, 102)": 1570,
    "(109, 330)": 1571,
    "(435, 292)": 1572,
    "(733, 275)": 1573,
    "(420, 276)": 1574,
    "(305, 463)": 1575,
    "(115, 430)": 1576,
    "(278, 107)": 1577,
    "(116, 256)": 1578,
    "(325, 523)": 1579,
    "(287, 69)": 1580,
    "(97, 119)": 1581,
    "(98, 1047)": 1582,
    "(1412, 798)": 1583,
    "(599, 525)": 1584,
    "(897, 102)": 1585,
    "(1585, 390)": 1586,
    "(555, 310)": 1587,
    "(109, 300)": 1588,
    "(331, 278)": 1589,
    "(498, 1106)": 1590,
    "(1032, 322)": 1591,
    "(675, 256)": 1592,
    "(103, 449)": 1593,
    "(122, 105)": 1594,
    "(712, 262)": 1595,
    "(438, 32)": 1596,
    "(97, 121)": 1597,
    "(275, 812)": 1598,
    "(121, 297)": 1599,
    "(767, 310)": 1600,
    "(953, 456)": 1601,
    "(896, 799)": 1602,
    "(273, 458)": 1603,
    "(565, 1025)": 1604,
    "(316, 269)": 1605,
    "(1155, 276)": 1606,
    "(310, 488)": 1607,
    "(509, 351)": 1608,
    "(538, 264)": 1609,
    "(658, 296)": 1610,
    "(107, 849)": 1611,
    "(394, 101)": 1612,
    "(352, 296)": 1613,
    "(1098, 1050)": 1614,
    "(331, 104)": 1615,
    "(121, 345)": 1616,
    "(268, 472)": 1617,
    "(1281, 1009)": 1618,
    "(878, 354)": 1619,
    "(1023, 445)": 1620,
    "(116, 285)": 1621,
    "(791, 324)": 1622,
    "(77, 924)": 1623,
    "(566, 272)": 1624,
    "(286, 462)": 1625,
    "(1037, 1044)": 1626,
    "(498, 302)": 1627,
    "(303, 268)": 1628,
    "(1007, 261)": 1629,
    "(802, 313)": 1630,
    "(826, 596)": 1631,
    "(112, 531)": 1632,
    "(1532, 745)": 1633,
    "(115, 318)": 1634,
    "(114, 256)": 1635,
    "(1319, 1248)": 1636,
    "(455, 499)": 1637,
    "(521, 301)": 1638,
    "(398, 740)": 1639,
    "(927, 1244)": 1640,
    "(1640, 280)": 1641,
    "(427, 256)": 1642,
    "(293, 280)": 1643,
    "(297, 637)": 1644,
    "(1644, 104)": 1645,
    "(328, 346)": 1646,
    "(1445, 1255)": 1647,
    "(461, 34)": 1648,
    "(709, 528)": 1649,
    "(527, 541)": 1650,
    "(1427, 502)": 1651,
    "(1327, 256)": 1652,
    "(306, 372)": 1653,
    "(1653, 1062)": 1654,
    "(711, 949)": 1655,
    "(586, 274)": 1656,
    "(427, 101)": 1657,
    "(109, 479)": 1658,
    "(419, 407)": 1659,
    "(965, 1099)": 1660,
    "(104, 284)": 1661,
    "(377, 649)": 1662,
    "(344, 458)": 1663,
    "(446, 309)": 1664,
    "(1266, 357)": 1665,
    "(83, 760)": 1666,
    "(977, 707)": 1667,
    "(116, 325)": 1668,
    "(98, 338)": 1669,
    "(749, 410)": 1670,
    "(772, 549)": 1671,
    "(1169, 785)": 1672,
    "(101, 394)": 1673,
    "(446, 336)": 1674,
    "(554, 272)": 1675,
    "(98, 278)": 1676,
    "(474, 631)": 1677,
    "(259, 989)": 1678,
    "(261, 275)": 1679,
    "(521, 334)": 1680,
    "(583, 268)": 1681,
    "(84, 506)": 1682,
    "(829, 796)": 1683,
    "(262, 386)": 1684,
    "(605, 503)": 1685,
    "(981, 299)": 1686,
    "(1616, 279)": 1687,
    "(592, 1040)": 1688,
    "(1361, 354)": 1689,
    "(287, 902)": 1690,
    "(560, 264)": 1691,
    "(1278, 256)": 1692,
    "(694, 394)": 1693,
    "(274, 606)": 1694,
    "(108, 563)": 1695,
    "(420, 314)": 1696,
    "(1615, 536)": 1697,
    "(259, 792)": 1698,
    "(1500, 114)": 1699,
    "(1363, 1230)": 1700,
    "(590, 101)": 1701,
    "(344, 339)": 1702,
    "(654, 1092)": 1703,
    "(471, 268)": 1704,
    "(574, 279)": 1705,
    "(499, 631)": 1706,
    "(336, 656)": 1707,
    "(114, 298)": 1708,
    "(521, 103)": 1709,
    "(277, 551)": 1710,
    "(955, 461)": 1711,
    "(527, 317)": 1712,
    "(1349, 260)": 1713,
    "(277, 624)": 1714,
    "(385, 277)": 1715,
    "(616, 269)": 1716,
    "(588, 286)": 1717,
    "(267, 107)": 1718,
    "(292, 99)": 1719,
    "(275, 636)": 1720,
    "(101, 302)": 1721,
    "(276, 856)": 1722,
    "(1306, 295)": 1723,
    "(97, 493)": 1724,
    "(939, 462)": 1725,
    "(296, 488)": 1726,
    "(258, 332)": 1727,
    "(899, 1017)": 1728,
    "(338, 671)": 1729,
    "(1105, 507)": 1730,
    "(259, 611)": 1731,
    "(274, 1162)": 1732,
    "(335, 1655)": 1733,
    "(712, 425)": 1734,
    "(354, 101)": 1735,
    "(382, 256)": 1736,
    "(272, 269)": 1737,
    "(620, 103)": 1738,
    "(492, 303)": 1739,
    "(393, 114)": 1740,
    "(554, 661)": 1741,
    "(1222, 274)": 1742,
    "(115, 337)": 1743,
    "(78, 1207)": 1744,
    "(463, 272)": 1745,
    "(802, 341)": 1746,
    "(1403, 284)": 1747,
    "(119, 267)": 1748,
    "(290, 260)": 1749,
    "(535, 682)": 1750,
    "(839, 264)": 1751,
    "(350, 1409)": 1752,
    "(377, 330)": 1753,
    "(806, 268)": 1754,
    "(387, 32)": 1755,
    "(566, 275)": 1756,
    "(102, 295)": 1757,
    "(577, 900)": 1758,
    "(328, 485)": 1759,
    "(116, 121)": 1760,
    "(1101, 644)": 1761,
    "(523, 269)": 1762,
    "(1410, 351)": 1763,
    "(577, 794)": 1764,
    "(98, 295)": 1765,
    "(344, 560)": 1766,
    "(381, 1070)": 1767,
    "(74, 553)": 1768,
    "(388, 1325)": 1769,
    "(84, 1204)": 1770,
    "(354, 276)": 1771,
    "(118, 105)": 1772,
    "(288, 271)": 1773,
    "(286, 430)": 1774,
    "(1728, 373)": 1775,
    "(945, 301)": 1776,
    "(334, 519)": 1777,
    "(1729, 293)": 1778,
    "(1104, 325)": 1779,
    "(341, 260)": 1780,
    "(110, 514)": 1781,
    "(296, 361)": 1782,
    "(1071, 300)": 1783,
    "(1238, 755)": 1784,
    "(604, 501)": 1785,
    "(1308, 457)": 1786,
    "(688, 430)": 1787,
    "(100, 271)": 1788,
    "(461, 121)": 1789,
    "(1117, 265)": 1790,
    "(426, 642)": 1791,
    "(308, 423)": 1792,
    "(97, 300)": 1793,
    "(115, 426)": 1794,
    "(313, 272)": 1795,
    "(102, 974)": 1796,
    "(632, 274)": 1797,
    "(119, 536)": 1798,
    "(657, 265)": 1799,
    "(256, 424)": 1800,
    "(376, 488)": 1801,
    "(398, 846)": 1802,
    "(442, 357)": 1803,
    "(116, 271)": 1804,
    "(346, 332)": 1805,
    "(288, 315)": 1806,
    "(777, 306)": 1807,
    "(1807, 309)": 1808,
    "(370, 111)": 1809,
    "(270, 1172)": 1810,
    "(359, 394)": 1811,
    "(103, 103)": 1812,
    "(1352, 351)": 1813,
    "(99, 544)": 1814,
    "(586, 309)": 1815,
    "(102, 1011)": 1816,
    "(439, 268)": 1817,
    "(616, 266)": 1818,
    "(99, 108)": 1819,
    "(291, 1324)": 1820,
    "(1357, 706)": 1821,
    "(730, 303)": 1822,
    "(558, 522)": 1823,
    "(1296, 1299)": 1824,
    "(265, 404)": 1825,
    "(904, 445)": 1826,
    "(33, 673)": 1827,
    "(628, 101)": 1828,
    "(487, 264)": 1829,
    "(628, 1025)": 1830,
    "(74, 961)": 1831,
    "(572, 274)": 1832,
    "(362, 368)": 1833,
    "(879, 275)": 1834,
    "(1554, 1043)": 1835,
    "(1362, 100)": 1836,
    "(99, 300)": 1837,
    "(527, 339)": 1838,
    "(544, 257)": 1839,
    "(1208, 434)": 1840,
    "(958, 540)": 1841,
    "(108, 530)": 1842,
    "(1074, 280)": 1843,
    "(865, 299)": 1844,
    "(112, 276)": 1845,
    "(407, 596)": 1846,
    "(326, 285)": 1847,
    "(117, 279)": 1848,
    "(658, 268)": 1849,
    "(367, 835)": 1850,
    "(84, 961)": 1851,
    "(495, 111)": 1852,
    "(351, 305)": 1853,
    "(121, 1048)": 1854,
    "(77, 375)": 1855,
    "(102, 306)": 1856,
    "(610, 274)": 1857,
    "(290, 500)": 1858,
    "(509, 410)": 1859,
    "(554, 424)": 1860,
    "(1537, 910)": 1861,
    "(1717, 508)": 1862,
    "(679, 268)": 1863,
    "(68, 1005)": 1864,
    "(437, 366)": 1865,
    "(354, 647)": 1866,
    "(762, 263)": 1867,
    "(601, 949)": 1868,
    "(105, 411)": 1869,
    "(1234, 518)": 1870,
    "(275, 574)": 1871,
    "(555, 268)": 1872,
    "(1326, 937)": 1873,
    "(1277, 503)": 1874,
    "(258, 1293)": 1875,
    "(102, 320)": 1876,
    "(287, 845)": 1877,
    "(99, 345)": 1878,
    "(1586, 260)": 1879,
    "(1212, 410)": 1880,
    "(87, 256)": 1881,
    "(492, 325)": 1882,
    "(275, 715)": 1883,
    "(1783, 292)": 1884,
    "(112, 452)": 1885,
    "(273, 447)": 1886,
    "(116, 531)": 1887,
    "(116, 284)": 1888,
    "(423, 332)": 1889,
    "(751, 924)": 1890,
    "(666, 892)": 1891,
    "(115, 291)": 1892,
    "(68, 266)": 1893,
    "(99, 693)": 1894,
    "(319, 434)": 1895,
    "(385, 900)": 1896,
    "(455, 993)": 1897,
    "(108, 267)": 1898,
    "(107, 298)": 1899,
    "(548, 312)": 1900,
    "(520, 596)": 1901,
    "(1156, 312)": 1902,
    "(119, 449)": 1903,
    "(607, 1076)": 1904,
    "(116, 395)": 1905,
    "(273, 807)": 1906,
    "(736, 268)": 1907,
    "(303, 490)": 1908,
    "(396, 379)": 1909,
    "(103, 759)": 1910,
    "(861, 1536)": 1911,
    "(892, 264)": 1912,
    "(524, 32)": 1913,
    "(308, 504)": 1914,
    "(884, 474)": 1915,
    "(911, 421)": 1916,
    "(359, 889)": 1917,
    "(108, 285)": 1918,
    "(453, 890)": 1919,
    "(1115, 261)": 1920,
    "(372, 323)": 1921,
    "(316, 310)": 1922,
    "(359, 121)": 1923,
    "(1004, 446)": 1924,
    "(366, 691)": 1925,
    "(438, 256)": 1926,
    "(118, 321)": 1927,
    "(116, 1220)": 1928,
    "(276, 103)": 1929,
    "(929, 105)": 1930,
    "(100, 281)": 1931,
    "(290, 466)": 1932,
    "(503, 1291)": 1933,
    "(101, 311)": 1934,
    "(473, 257)": 1935,
    "(738, 114)": 1936,
    "(397, 1577)": 1937,
    "(278, 257)": 1938,
    "(276, 913)": 1939,
    "(117, 116)": 1940,
    "(99, 637)": 1941,
    "(271, 577)": 1942,
    "(262, 279)": 1943,
    "(805, 505)": 1944,
    "(515, 117)": 1945,
    "(376, 346)": 1946,
    "(800, 456)": 1947,
    "(97, 1796)": 1948,
    "(1893, 474)": 1949,
    "(274, 363)": 1950,
    "(115, 328)": 1951,
    "(1747, 835)": 1952,
    "(1896, 274)": 1953,
    "(852, 439)": 1954,
    "(852, 289)": 1955,
    "(717, 265)": 1956,
    "(685, 299)": 1957,
    "(965, 758)": 1958,
    "(1534, 575)": 1959,
    "(471, 376)": 1960,
    "(434, 268)": 1961,
    "(811, 321)": 1962,
    "(481, 1287)": 1963,
    "(103, 591)": 1964,
    "(858, 272)": 1965,
    "(121, 618)": 1966,
    "(594, 1603)": 1967,
    "(1102, 257)": 1968,
    "(275, 309)": 1969,
    "(772, 115)": 1970,
    "(403, 260)": 1971,
    "(1217, 1643)": 1972,
    "(793, 458)": 1973,
    "(827, 312)": 1974,
    "(814, 256)": 1975,
    "(570, 264)": 1976,
    "(332, 550)": 1977,
    "(885, 309)": 1978,
    "(585, 424)": 1979,
    "(288, 351)": 1980,
    "(801, 256)": 1981,
    "(115, 259)": 1982,
    "(104, 1774)": 1983,
    "(734, 1775)": 1984,
    "(273, 541)": 1985,
    "(115, 1310)": 1986,
    "(478, 466)": 1987,
    "(1056, 721)": 1988,
    "(1131, 501)": 1989,
    "(899, 940)": 1990,
    "(1441, 889)": 1991,
    "(300, 264)": 1992,
    "(102, 737)": 1993,
    "(342, 116)": 1994,
    "(559, 110)": 1995,
    "(335, 112)": 1996,
    "(287, 792)": 1997,
    "(354, 260)": 1998,
    "(822, 263)": 1999,
    "(1189, 456)": 2000,
    "(372, 923)": 2001,
    "(112, 382)": 2002,
    "(428, 910)": 2003,
    "(481, 563)": 2004,
    "(1073, 552)": 2005,
    "(1261, 274)": 2006,
    "(1071, 97)": 2007,
    "(1336, 373)": 2008,
    "(262, 264)": 2009,
    "(692, 268)": 2010,
    "(789, 299)": 2011,
    "(98, 32)": 2012,
    "(115, 379)": 2013,
    "(275, 619)": 2014,
    "(33, 34)": 2015,
    "(101, 594)": 2016,
    "(1155, 321)": 2017,
    "(100, 121)": 2018,
    "(568, 376)": 2019,
    "(119, 457)": 2020,
    "(1430, 637)": 2021,
    "(946, 950)": 2022,
    "(72, 297)": 2023,
    "(360, 499)": 2024,
    "(615, 114)": 2025,
    "(39, 1635)": 2026,
    "(498, 680)": 2027,
    "(1671, 264)": 2028,
    "(104, 618)": 2029,
    "(292, 109)": 2030,
    "(277, 626)": 2031,
    "(397, 411)": 2032,
    "(372, 1233)": 2033,
    "(1386, 491)": 2034,
    "(371, 297)": 2035,
    "(790, 1087)": 2036,
    "(84, 286)": 2037,
    "(298, 101)": 2038,
    "(946, 465)": 2039,
    "(1078, 305)": 2040,
    "(1090, 257)": 2041,
    "(381, 1054)": 2042,
    "(694, 333)": 2043,
    "(109, 278)": 2044,
    "(461, 275)": 2045,
    "(112, 341)": 2046,
    "(69, 109)": 2047,
    "(472, 853)": 2048,
    "(393, 115)": 2049,
    "(1235, 1181)": 2050,
    "(453, 637)": 2051,
    "(261, 366)": 2052,
    "(1393, 264)": 2053,
    "(1495, 279)": 2054,
    "(651, 290)": 2055,
    "(986, 32)": 2056,
    "(387, 264)": 2057,
    "(101, 293)": 2058,
    "(32, 550)": 2059,
    "(98, 496)": 2060,
    "(115, 264)": 2061,
    "(454, 398)": 2062,
    "(644, 277)": 2063,
    "(1208, 330)": 2064,
    "(841, 992)": 2065,
    "(1079, 549)": 2066,
    "(108, 296)": 2067,
    "(570, 1026)": 2068,
    "(112, 406)": 2069,
    "(544, 312)": 2070,
    "(102, 1178)": 2071,
    "(430, 268)": 2072,
    "(433, 316)": 2073,
    "(76, 101)": 2074,
    "(107, 322)": 2075,
    "(100, 465)": 2076,
    "(115, 263)": 2077,
    "(1892, 114)": 2078,
    "(757, 268)": 2079,
    "(402, 271)": 2080,
    "(523, 268)": 2081,
    "(119, 667)": 2082,
    "(275, 722)": 2083,
    "(999, 505)": 2084,
    "(437, 272)": 2085,
    "(605, 352)": 2086,
    "(629, 460)": 2087,
    "(492, 378)": 2088,
    "(555, 376)": 2089,
    "(282, 272)": 2090,
    "(271, 296)": 2091,
    "(329, 111)": 2092,
    "(960, 333)": 2093,
    "(119, 297)": 2094,
    "(99, 392)": 2095,
    "(291, 100)": 2096,
    "(1669, 778)": 2097,
    "(610, 268)": 2098,
    "(70, 1672)": 2099,
    "(371, 1085)": 2100,
    "(360, 1129)": 2101,
    "(821, 546)": 2102,
    "(114, 531)": 2103,
    "(381, 1431)": 2104,
    "(503, 606)": 2105,
    "(801, 101)": 2106,
    "(734, 1810)": 2107,
    "(509, 115)": 2108,
    "(320, 755)": 2109,
    "(813, 110)": 2110,
    "(269, 388)": 2111,
    "(367, 1026)": 2112,
    "(1320, 727)": 2113,
    "(1492, 423)": 2114,
    "(350, 119)": 2115,
    "(101, 1821)": 2116,
    "(459, 581)": 2117,
    "(590, 394)": 2118,
    "(1210, 101)": 2119,
    "(346, 648)": 2120,
    "(1133, 1132)": 2121,
    "(1909, 267)": 2122,
    "(258, 439)": 2123,
    "(67, 855)": 2124,
    "(98, 263)": 2125,
    "(276, 263)": 2126,
    "(475, 435)": 2127,
    "(2127, 267)": 2128,
    "(832, 1038)": 2129,
    "(381, 1134)": 2130,
    "(292, 1275)": 2131,
    "(277, 979)": 2132,
    "(657, 325)": 2133,
    "(1552, 378)": 2134,
    "(730, 378)": 2135,
    "(398, 1167)": 2136,
    "(51, 32)": 2137,
    "(2137, 850)": 2138,
    "(346, 275)": 2139,
    "(98, 1543)": 2140,
    "(105, 32)": 2141,
    "(481, 382)": 2142,
    "(526, 105)": 2143,
    "(383, 315)": 2144,
    "(1211, 533)": 2145,
    "(1165, 368)": 2146,
    "(116, 456)": 2147,
    "(1358, 261)": 2148,
    "(731, 309)": 2149,
    "(77, 1791)": 2150,
    "(802, 537)": 2151,
    "(1599, 1301)": 2152,
    "(946, 650)": 2153,
    "(1699, 321)": 2154,
    "(419, 1151)": 2155,
    "(115, 383)": 2156,
    "(498, 585)": 2157,
    "(367, 111)": 2158,
    "(334, 884)": 2159,
    "(1524, 334)": 2160,
    "(590, 430)": 2161,
    "(413, 32)": 2162,
    "(683, 289)": 2163,
    "(788, 463)": 2164,
    "(523, 296)": 2165,
    "(1139, 1404)": 2166,
    "(287, 942)": 2167,
    "(336, 442)": 2168,
    "(1086, 537)": 2169,
    "(277, 682)": 2170,
    "(860, 809)": 2171,
    "(116, 315)": 2172,
    "(104, 314)": 2173,
    "(960, 760)": 2174,
    "(715, 274)": 2175,
    "(110, 121)": 2176,
    "(310, 464)": 2177,
    "(468, 346)": 2178,
    "(114, 330)": 2179,
    "(446, 683)": 2180,
    "(741, 99)": 2181,
    "(1173, 552)": 2182,
    "(109, 508)": 2183,
    "(1455, 100)": 2184,
    "(1645, 745)": 2185,
    "(116, 337)": 2186,
    "(104, 338)": 2187,
    "(98, 395)": 2188,
    "(116, 264)": 2189,
    "(1037, 264)": 2190,
    "(1003, 100)": 2191,
    "(701, 456)": 2192,
    "(103, 1724)": 2193,
    "(262, 356)": 2194,
    "(839, 105)": 2195,
    "(79, 104)": 2196,
    "(893, 346)": 2197,
    "(491, 272)": 2198,
    "(63, 34)": 2199,
    "(1098, 1216)": 2200,
    "(262, 116)": 2201,
    "(828, 463)": 2202,
    "(1781, 1691)": 2203,
    "(1022, 332)": 2204,
    "(930, 449)": 2205,
    "(1884, 282)": 2206,
    "(1149, 476)": 2207,
    "(259, 80)": 2208,
    "(798, 656)": 2209,
    "(292, 100)": 2210,
    "(115, 471)": 2211,
    "(443, 502)": 2212,
    "(464, 525)": 2213,
    "(77, 1282)": 2214,
    "(262, 481)": 2215,
    "(1343, 1494)": 2216,
    "(110, 280)": 2217,
    "(99, 563)": 2218,
    "(39, 257)": 2219,
    "(334, 111)": 2220,
    "(118, 301)": 2221,
    "(2221, 320)": 2222,
    "(2158, 313)": 2223,
    "(468, 1100)": 2224,
    "(381, 1179)": 2225,
    "(287, 66)": 2226,
    "(661, 271)": 2227,
    "(1209, 1477)": 2228,
    "(684, 271)": 2229,
    "(1109, 277)": 2230,
    "(790, 768)": 2231,
    "(738, 460)": 2232,
    "(666, 778)": 2233,
    "(1182, 458)": 2234,
    "(658, 309)": 2235,
    "(104, 272)": 2236,
    "(359, 549)": 2237,
    "(608, 1011)": 2238,
    "(83, 951)": 2239,
    "(341, 725)": 2240,
    "(397, 101)": 2241,
    "(99, 297)": 2242,
    "(471, 269)": 2243,
    "(295, 373)": 2244,
    "(77, 1229)": 2245,
    "(1428, 494)": 2246,
    "(2023, 295)": 2247,
    "(645, 107)": 2248,
    "(1127, 264)": 2249,
    "(292, 320)": 2250,
    "(264, 268)": 2251,
    "(1249, 630)": 2252,
    "(354, 97)": 2253,
    "(632, 310)": 2254,
    "(404, 272)": 2255,
    "(1446, 101)": 2256,
    "(111, 374)": 2257,
    "(600, 310)": 2258,
    "(265, 288)": 2259,
    "(290, 863)": 2260,
    "(1069, 1147)": 2261,
    "(724, 334)": 2262,
    "(917, 280)": 2263,
    "(100, 1867)": 2264,
    "(277, 1517)": 2265,
    "(348, 1608)": 2266,
    "(523, 310)": 2267,
    "(122, 122)": 2268,
    "(380, 520)": 2269,
    "(1130, 705)": 2270,
    "(101, 418)": 2271,
    "(1359, 1438)": 2272,
    "(39, 816)": 2273,
    "(114, 121)": 2274,
    "(265, 914)": 2275,
    "(277, 926)": 2276,
    "(327, 441)": 2277,
    "(368, 1588)": 2278,
    "(741, 267)": 2279,
    "(880, 480)": 2280,
    "(336, 1190)": 2281,
    "(100, 300)": 2282,
    "(1191, 1853)": 2283,
    "(2055, 326)": 2284,
    "(1331, 269)": 2285,
    "(427, 710)": 2286,
    "(111, 311)": 2287,
    "(867, 1042)": 2288,
    "(308, 2210)": 2289,
    "(1177, 755)": 2290,
    "(285, 274)": 2291,
    "(653, 264)": 2292,
    "(272, 310)": 2293,
    "(874, 924)": 2294,
    "(277, 916)": 2295,
    "(108, 1174)": 2296,
    "(368, 100)": 2297,
    "(333, 274)": 2298,
    "(538, 97)": 2299,
    "(77, 479)": 2300,
    "(341, 99)": 2301,
    "(653, 434)": 2302,
    "(110, 274)": 2303,
    "(834, 309)": 2304,
    "(803, 745)": 2305,
    "(1296, 1355)": 2306,
    "(588, 1449)": 2307,
    "(117, 108)": 2308,
    "(1472, 474)": 2309,
    "(1379, 552)": 2310,
    "(913, 1948)": 2311,
    "(334, 284)": 2312,
    "(711, 109)": 2313,
    "(335, 469)": 2314,
    "(1030, 272)": 2315,
    "(1008, 757)": 2316,
    "(320, 453)": 2317,
    "(296, 510)": 2318,
    "(662, 281)": 2319,
    "(976, 893)": 2320,
    "(614, 1141)": 2321,
    "(98, 313)": 2322,
    "(598, 424)": 2323,
    "(410, 272)": 2324,
    "(1481, 296)": 2325,
    "(495, 313)": 2326,
    "(485, 740)": 2327,
    "(1805, 1213)": 2328,
    "(1128, 115)": 2329,
    "(99, 339)": 2330,
    "(513, 282)": 2331,
    "(559, 480)": 2332,
    "(836, 1012)": 2333,
    "(1809, 386)": 2334,
    "(104, 1848)": 2335,
    "(87, 452)": 2336,
    "(741, 260)": 2337,
    "(632, 269)": 2338,
    "(885, 566)": 2339,
    "(632, 268)": 2340,
    "(258, 1252)": 2341,
    "(834, 565)": 2342,
    "(1560, 936)": 2343,
    "(1160, 378)": 2344,
    "(258, 508)": 2345,
    "(694, 760)": 2346,
    "(1018, 1869)": 2347,
    "(1723, 281)": 2348,
    "(565, 1649)": 2349,
    "(604, 575)": 2350,
    "(1354, 285)": 2351,
    "(1307, 1768)": 2352,
    "(370, 336)": 2353,
    "(1058, 256)": 2354,
    "(960, 784)": 2355,
    "(1183, 312)": 2356,
    "(267, 974)": 2357,
    "(954, 265)": 2358,
    "(275, 274)": 2359,
    "(675, 101)": 2360,
    "(710, 641)": 2361,
    "(116, 1042)": 2362,
    "(63, 673)": 2363,
    "(471, 296)": 2364,
    "(293, 117)": 2365,
    "(586, 296)": 2366,
    "(99, 406)": 2367,
    "(74, 475)": 2368,
    "(342, 598)": 2369,
    "(115, 419)": 2370,
    "(352, 277)": 2371,
    "(262, 1333)": 2372,
    "(1593, 313)": 2373,
    "(263, 261)": 2374,
    "(2143, 529)": 2375,
    "(315, 398)": 2376,
    "(824, 621)": 2377,
    "(262, 758)": 2378,
    "(287, 1647)": 2379,
    "(599, 1199)": 2380,
    "(1058, 105)": 2381,
    "(1889, 905)": 2382,
    "(1234, 118)": 2383,
    "(1112, 277)": 2384,
    "(301, 344)": 2385,
    "(275, 1072)": 2386,
    "(883, 257)": 2387,
    "(262, 778)": 2388,
    "(739, 1092)": 2389,
    "(333, 650)": 2390,
    "(1090, 258)": 2391,
    "(1088, 575)": 2392,
    "(115, 423)": 2393,
    "(1595, 1294)": 2394,
    "(106, 338)": 2395,
    "(521, 549)": 2396,
    "(1057, 631)": 2397,
    "(285, 309)": 2398,
    "(1526, 261)": 2399,
    "(338, 1503)": 2400,
    "(1444, 1243)": 2401,
    "(1662, 2311)": 2402,
    "(857, 354)": 2403,
    "(499, 975)": 2404,
    "(351, 263)": 2405,
    "(594, 262)": 2406,
    "(1210, 1198)": 2407,
    "(790, 261)": 2408,
    "(574, 103)": 2409,
    "(1894, 341)": 2410,
    "(1022, 262)": 2411,
    "(277, 919)": 2412,
    "(1428, 289)": 2413,
    "(1226, 260)": 2414,
    "(337, 460)": 2415,
    "(1226, 116)": 2416,
    "(714, 779)": 2417,
    "(751, 1229)": 2418,
    "(401, 821)": 2419,
    "(614, 1231)": 2420,
    "(1451, 321)": 2421,
    "(527, 312)": 2422,
    "(275, 781)": 2423,
    "(115, 1344)": 2424,
    "(2424, 426)": 2425,
    "(712, 1288)": 2426,
    "(370, 375)": 2427,
    "(1131, 107)": 2428,
    "(1003, 257)": 2429,
    "(1751, 476)": 2430,
    "(601, 258)": 2431,
    "(105, 1132)": 2432,
    "(1486, 265)": 2433,
    "(712, 1384)": 2434,
    "(1088, 112)": 2435,
    "(108, 338)": 2436,
    "(87, 1204)": 2437,
    "(762, 256)": 2438,
    "(336, 676)": 2439,
    "(275, 362)": 2440,
    "(268, 1407)": 2441,
    "(330, 272)": 2442,
    "(288, 328)": 2443,
    "(1468, 456)": 2444,
    "(564, 265)": 2445,
    "(939, 1571)": 2446,
    "(592, 1684)": 2447,
    "(616, 111)": 2448,
    "(288, 101)": 2449,
    "(1777, 2051)": 2450,
    "(302, 309)": 2451,
    "(1352, 537)": 2452,
    "(337, 334)": 2453,
    "(515, 281)": 2454,
    "(1357, 1255)": 2455,
    "(352, 376)": 2456,
    "(419, 936)": 2457,
    "(1273, 540)": 2458,
    "(651, 293)": 2459,
    "(730, 757)": 2460,
    "(269, 1053)": 2461,
    "(879, 424)": 2462,
    "(265, 437)": 2463,
    "(308, 560)": 2464,
    "(118, 267)": 2465,
    "(366, 336)": 2466,
    "(879, 268)": 2467,
    "(559, 1111)": 2468,
    "(1752, 98)": 2469,
    "(542, 868)": 2470,
    "(1094, 310)": 2471,
    "(592, 394)": 2472,
    "(876, 1761)": 2473,
    "(604, 518)": 2474,
    "(1486, 378)": 2475,
    "(574, 819)": 2476,
    "(1465, 962)": 2477,
    "(659, 128)": 2478,
    "(1334, 1940)": 2479,
    "(331, 529)": 2480,
    "(1544, 411)": 2481,
    "(262, 107)": 2482,
    "(274, 1141)": 2483,
    "(1156, 107)": 2484,
    "(270, 118)": 2485,
    "(1929, 267)": 2486,
    "(664, 268)": 2487,
    "(956, 705)": 2488,
    "(633, 1324)": 2489,
    "(473, 387)": 2490,
    "(2490, 519)": 2491,
    "(108, 278)": 2492,
    "(1772, 426)": 2493,
    "(791, 923)": 2494,
    "(359, 323)": 2495,
    "(2007, 334)": 2496,
    "(291, 326)": 2497,
    "(900, 2402)": 2498,
    "(1743, 1261)": 2499,
    "(499, 1263)": 2500,
    "(832, 100)": 2501,
    "(65, 1021)": 2502,
    "(376, 395)": 2503,
    "(660, 1083)": 2504,
    "(485, 551)": 2505,
    "(614, 1401)": 2506,
    "(1508, 110)": 2507,
    "(2242, 2016)": 2508,
    "(619, 944)": 2509,
    "(676, 411)": 2510,
    "(613, 1285)": 2511,
    "(1212, 293)": 2512,
    "(83, 333)": 2513,
    "(293, 563)": 2514,
    "(637, 276)": 2515,
    "(2515, 319)": 2516,
    "(871, 271)": 2517,
    "(73, 110)": 2518,
    "(109, 298)": 2519,
    "(446, 402)": 2520,
    "(512, 442)": 2521,
    "(366, 684)": 2522,
    "(509, 334)": 2523,
    "(1570, 430)": 2524,
    "(447, 268)": 2525,
    "(1383, 833)": 2526,
    "(359, 111)": 2527,
    "(636, 268)": 2528,
    "(552, 272)": 2529,
    "(98, 1085)": 2530,
    "(1144, 355)": 2531,
    "(296, 446)": 2532,
    "(1182, 120)": 2533,
    "(288, 380)": 2534,
    "(341, 102)": 2535,
    "(315, 498)": 2536,
    "(471, 310)": 2537,
    "(115, 108)": 2538,
    "(101, 743)": 2539,
    "(2539, 278)": 2540,
    "(2540, 114)": 2541,
    "(738, 1576)": 2542,
    "(787, 1581)": 2543,
    "(629, 354)": 2544,
    "(112, 1252)": 2545,
    "(296, 1105)": 2546,
    "(284, 2438)": 2547,
    "(597, 820)": 2548,
    "(119, 298)": 2549,
    "(461, 424)": 2550,
    "(1216, 45)": 2551,
    "(605, 332)": 2552,
    "(84, 336)": 2553,
    "(1383, 546)": 2554,
    "(711, 100)": 2555,
    "(291, 329)": 2556,
    "(1562, 272)": 2557,
    "(116, 1075)": 2558,
    "(1032, 321)": 2559,
    "(1414, 351)": 2560,
    "(1823, 1000)": 2561,
    "(804, 117)": 2562,
    "(1930, 560)": 2563,
    "(98, 406)": 2564,
    "(983, 310)": 2565,
    "(360, 69)": 2566,
    "(492, 265)": 2567,
    "(112, 1148)": 2568,
    "(315, 346)": 2569,
    "(1414, 497)": 2570,
    "(100, 443)": 2571,
    "(269, 734)": 2572,
    "(110, 387)": 2573,
    "(2357, 2058)": 2574,
    "(2138, 2059)": 2575,
    "(1077, 325)": 2576,
    "(259, 641)": 2577,
    "(105, 460)": 2578,
    "(664, 1926)": 2579,
    "(292, 293)": 2580,
    "(115, 380)": 2581,
    "(119, 286)": 2582,
    "(297, 460)": 2583,
    "(1654, 268)": 2584,
    "(119, 2257)": 2585,
    "(350, 737)": 2586,
    "(1460, 303)": 2587,
    "(1146, 448)": 2588,
    "(550, 831)": 2589,
    "(306, 1941)": 2590,
    "(1133, 1886)": 2591,
    "(585, 275)": 2592,
    "(548, 108)": 2593,
    "(362, 332)": 2594,
    "(265, 566)": 2595,
    "(112, 300)": 2596,
    "(112, 104)": 2597,
    "(832, 2301)": 2598,
    "(1690, 600)": 2599,
    "(588, 306)": 2600,
    "(1300, 356)": 2601,
    "(1740, 934)": 2602,
    "(259, 1298)": 2603,
    "(790, 110)": 2604,
    "(555, 274)": 2605,
    "(704, 297)": 2606,
    "(608, 1147)": 2607,
    "(403, 671)": 2608,
    "(295, 260)": 2609,
    "(331, 101)": 2610,
    "(287, 1163)": 2611,
    "(101, 799)": 2612,
    "(294, 258)": 2613,
    "(565, 315)": 2614,
    "(1504, 289)": 2615,
    "(1558, 268)": 2616,
    "(590, 465)": 2617,
    "(353, 437)": 2618,
    "(114, 306)": 2619,
    "(452, 282)": 2620,
    "(1475, 908)": 2621,
    "(1525, 444)": 2622,
    "(668, 32)": 2623,
    "(116, 669)": 2624,
    "(271, 274)": 2625,
    "(904, 1568)": 2626,
    "(2519, 100)": 2627,
    "(65, 462)": 2628,
    "(698, 458)": 2629,
    "(1341, 2522)": 2630,
    "(2250, 120)": 2631,
    "(777, 776)": 2632,
    "(1268, 1269)": 2633,
    "(1318, 116)": 2634,
    "(2014, 353)": 2635,
    "(362, 260)": 2636,
    "(99, 652)": 2637,
    "(336, 966)": 2638,
    "(307, 760)": 2639,
    "(317, 311)": 2640,
    "(337, 1270)": 2641,
    "(97, 301)": 2642,
    "(433, 348)": 2643,
    "(2332, 533)": 2644,
    "(2644, 2430)": 2645,
    "(1911, 1181)": 2646,
    "(624, 272)": 2647,
    "(357, 272)": 2648,
    "(989, 631)": 2649,
    "(815, 305)": 2650,
    "(1008, 265)": 2651,
    "(677, 275)": 2652,
    "(273, 469)": 2653,
    "(714, 535)": 2654,
    "(69, 108)": 2655,
    "(2186, 293)": 2656,
    "(562, 881)": 2657,
    "(1289, 274)": 2658,
    "(99, 317)": 2659,
    "(454, 498)": 2660,
    "(1268, 296)": 2661,
    "(1389, 390)": 2662,
    "(105, 373)": 2663,
    "(103, 999)": 2664,
    "(562, 424)": 2665,
    "(453, 261)": 2666,
    "(1096, 261)": 2667,
    "(1722, 32)": 2668,
    "(983, 376)": 2669,
    "(584, 1119)": 2670,
    "(521, 264)": 2671,
    "(689, 626)": 2672,
    "(1353, 1040)": 2673,
    "(1771, 305)": 2674,
    "(101, 435)": 2675,
    "(1726, 490)": 2676,
    "(744, 256)": 2677,
    "(993, 525)": 2678,
    "(334, 297)": 2679,
    "(1347, 268)": 2680,
    "(1985, 507)": 2681,
    "(400, 725)": 2682,
    "(524, 110)": 2683,
    "(267, 465)": 2684,
    "(1931, 1416)": 2685,
    "(577, 1052)": 2686,
    "(338, 105)": 2687,
    "(1086, 263)": 2688,
    "(2688, 2568)": 2689,
    "(1328, 272)": 2690,
    "(334, 101)": 2691,
    "(110, 1416)": 2692,
    "(461, 535)": 2693,
    "(2284, 457)": 2694,
    "(857, 1564)": 2695,
    "(293, 1839)": 2696,
    "(1715, 332)": 2697,
    "(628, 328)": 2698,
    "(2196, 32)": 2699,
    "(648, 1377)": 2700,
    "(1833, 908)": 2701,
    "(115, 754)": 2702,
    "(1522, 265)": 2703,
    "(775, 1994)": 2704,
    "(892, 285)": 2705,
    "(2193, 265)": 2706,
    "(650, 366)": 2707,
    "(455, 1391)": 2708,
    "(761, 112)": 2709,
    "(82, 571)": 2710,
    "(2710, 752)": 2711,
    "(294, 1040)": 2712,
    "(985, 302)": 2713,
    "(861, 418)": 2714,
    "(2071, 280)": 2715,
    "(291, 1265)": 2716,
    "(578, 297)": 2717,
    "(1696, 361)": 2718,
    "(277, 268)": 2719,
    "(116, 514)": 2720,
    "(2720, 458)": 2721,
    "(122, 264)": 2722,
    "(625, 404)": 2723,
    "(1642, 1240)": 2724,
    "(382, 669)": 2725,
    "(492, 285)": 2726,
    "(112, 529)": 2727,
    "(73, 703)": 2728,
    "(1501, 107)": 2729,
    "(1348, 627)": 2730,
    "(2030, 849)": 2731,
    "(103, 430)": 2732,
    "(386, 410)": 2733,
    "(295, 575)": 2734,
    "(653, 105)": 2735,
    "(267, 116)": 2736,
    "(1837, 1022)": 2737,
    "(529, 263)": 2738,
    "(1945, 2472)": 2739,
    "(281, 424)": 2740,
    "(307, 1093)": 2741,
    "(570, 1939)": 2742,
    "(899, 282)": 2743,
    "(617, 1398)": 2744,
    "(1082, 961)": 2745,
    "(1374, 563)": 2746,
    "(292, 410)": 2747,
    "(586, 268)": 2748,
    "(69, 2006)": 2749,
    "(115, 296)": 2750,
    "(1765, 923)": 2751,
    "(1661, 460)": 2752,
    "(100, 426)": 2753,
    "(2395, 103)": 2754,
    "(519, 291)": 2755,
    "(116, 338)": 2756,
    "(897, 2393)": 2757,
    "(578, 889)": 2758,
    "(578, 120)": 2759,
    "(381, 666)": 2760,
    "(941, 1423)": 2761,
    "(1703, 2080)": 2762,
    "(580, 788)": 2763,
    "(820, 272)": 2764,
    "(119, 849)": 2765,
    "(885, 268)": 2766,
    "(932, 463)": 2767,
    "(376, 510)": 2768,
    "(97, 312)": 2769,
    "(692, 274)": 2770,
    "(786, 468)": 2771,
    "(277, 1364)": 2772,
    "(724, 1842)": 2773,
    "(587, 488)": 2774,
    "(114, 1011)": 2775,
    "(2514, 285)": 2776,
    "(112, 2403)": 2777,
    "(562, 272)": 2778,
    "(401, 565)": 2779,
    "(814, 647)": 2780,
    "(380, 903)": 2781,
    "(435, 256)": 2782,
    "(2627, 313)": 2783,
    "(1634, 260)": 2784,
    "(112, 746)": 2785,
    "(870, 2026)": 2786,
    "(328, 614)": 2787,
    "(383, 380)": 2788,
    "(483, 1513)": 2789,
    "(794, 619)": 2790,
    "(527, 100)": 2791,
    "(1170, 375)": 2792,
    "(116, 1346)": 2793,
    "(691, 395)": 2794,
    "(528, 474)": 2795,
    "(714, 679)": 2796,
    "(320, 777)": 2797,
    "(83, 1288)": 2798,
    "(683, 265)": 2799,
    "(309, 656)": 2800,
    "(1638, 257)": 2801,
    "(801, 952)": 2802,
    "(495, 341)": 2803,
    "(984, 354)": 2804,
    "(376, 1100)": 2805,
    "(101, 382)": 2806,
    "(296, 638)": 2807,
    "(277, 677)": 2808,
    "(452, 505)": 2809,
    "(2541, 1287)": 2810,
    "(1458, 257)": 2811,
    "(1271, 439)": 2812,
    "(905, 115)": 2813,
    "(1249, 326)": 2814,
    "(865, 584)": 2815,
    "(77, 264)": 2816,
    "(955, 2111)": 2817,
    "(1472, 499)": 2818,
    "(1544, 449)": 2819,
    "(344, 500)": 2820,
    "(267, 102)": 2821,
    "(688, 952)": 2822,
    "(99, 101)": 2823,
    "(1184, 256)": 2824,
    "(352, 707)": 2825,
    "(1374, 1447)": 2826,
    "(397, 1968)": 2827,
    "(119, 383)": 2828,
    "(66, 1345)": 2829,
    "(287, 611)": 2830,
    "(100, 759)": 2831,
    "(955, 310)": 2832,
    "(943, 2049)": 2833,
    "(2124, 344)": 2834,
    "(1210, 529)": 2835,
    "(109, 301)": 2836,
    "(736, 600)": 2837,
    "(1733, 268)": 2838,
    "(1703, 474)": 2839,
    "(1053, 1480)": 2840,
    "(594, 117)": 2841,
    "(348, 606)": 2842,
    "(1265, 274)": 2843,
    "(1411, 947)": 2844,
    "(1361, 460)": 2845,
    "(365, 445)": 2846,
    "(319, 1829)": 2847,
    "(1864, 527)": 2848,
    "(608, 260)": 2849,
    "(1588, 114)": 2850,
    "(1122, 886)": 2851,
    "(99, 550)": 2852,
    "(287, 1323)": 2853,
    "(851, 325)": 2854,
    "(67, 484)": 2855,
    "(498, 1019)": 2856,
    "(675, 842)": 2857,
    "(959, 1992)": 2858,
    "(446, 1936)": 2859,
    "(646, 275)": 2860,
    "(1696, 433)": 2861,
    "(258, 276)": 2862,
    "(676, 449)": 2863,
    "(624, 872)": 2864,
    "(1142, 263)": 2865,
    "(1496, 303)": 2866,
    "(1003, 116)": 2867,
    "(604, 493)": 2868,
    "(1103, 607)": 2869,
    "(510, 812)": 2870,
    "(263, 101)": 2871,
    "(308, 373)": 2872,
    "(105, 256)": 2873,
    "(1335, 439)": 2874,
    "(296, 398)": 2875,
    "(982, 272)": 2876,
    "(281, 652)": 2877,
    "(766, 1043)": 2878,
    "(419, 826)": 2879,
    "(1899, 261)": 2880,
    "(277, 1257)": 2881,
    "(1483, 101)": 2882,
    "(372, 460)": 2883,
    "(315, 485)": 2884,
    "(976, 1415)": 2885,
    "(874, 375)": 2886,
    "(1790, 609)": 2887,
    "(470, 1076)": 2888,
    "(1195, 310)": 2889,
    "(574, 99)": 2890,
    "(98, 265)": 2891,
    "(77, 105)": 2892,
    "(109, 338)": 2893,
    "(77, 1048)": 2894,
    "(103, 2126)": 2895,
    "(517, 368)": 2896,
    "(281, 430)": 2897,
    "(1116, 100)": 2898,
    "(1688, 272)": 2899,
    "(272, 309)": 2900,
    "(438, 372)": 2901,
    "(115, 288)": 2902,
    "(704, 1360)": 2903,
    "(1131, 493)": 2904,
    "(101, 497)": 2905,
    "(65, 344)": 2906,
    "(109, 274)": 2907,
    "(886, 261)": 2908,
    "(477, 745)": 2909,
    "(657, 1016)": 2910,
    "(2013, 334)": 2911,
    "(352, 887)": 2912,
    "(70, 292)": 2913,
    "(380, 826)": 2914,
    "(1191, 98)": 2915,
    "(1876, 334)": 2916,
    "(493, 973)": 2917,
    "(1239, 265)": 2918,
    "(787, 2162)": 2919,
    "(101, 380)": 2920,
    "(617, 941)": 2921,
    "(2405, 934)": 2922,
    "(296, 346)": 2923,
    "(99, 465)": 2924,
    "(272, 274)": 2925,
    "(271, 431)": 2926,
    "(98, 2084)": 2927,
    "(97, 107)": 2928,
    "(372, 1842)": 2929,
    "(661, 315)": 2930,
    "(1527, 1800)": 2931,
    "(1195, 376)": 2932,
    "(1367, 120)": 2933,
    "(631, 499)": 2934,
    "(108, 349)": 2935,
    "(1094, 269)": 2936,
    "(786, 271)": 2937,
    "(2516, 2322)": 2938,
    "(1511, 439)": 2939,
    "(1748, 622)": 2940,
    "(2783, 533)": 2941,
    "(2092, 293)": 2942,
    "(2025, 354)": 2943,
    "(625, 264)": 2944,
    "(1570, 256)": 2945,
    "(2523, 1247)": 2946,
    "(325, 569)": 2947,
    "(381, 1670)": 2948,
    "(290, 264)": 2949,
    "(1090, 279)": 2950,
    "(1633, 275)": 2951,
    "(107, 365)": 2952,
    "(315, 543)": 2953,
    "(83, 1384)": 2954,
    "(117, 430)": 2955,
    "(1286, 272)": 2956,
    "(660, 1631)": 2957,
    "(336, 1049)": 2958,
    "(1970, 449)": 2959,
    "(614, 463)": 2960,
    "(121, 380)": 2961,
    "(2035, 357)": 2962,
    "(340, 305)": 2963,
    "(100, 667)": 2964,
    "(664, 296)": 2965,
    "(565, 328)": 2966,
    "(100, 934)": 2967,
    "(1814, 282)": 2968,
    "(1253, 122)": 2969,
    "(562, 837)": 2970,
    "(291, 313)": 2971,
    "(876, 1262)": 2972,
    "(498, 348)": 2973,
    "(1460, 265)": 2974,
    "(1410, 537)": 2975,
    "(362, 784)": 2976,
    "(1353, 940)": 2977,
    "(99, 347)": 2978,
    "(121, 479)": 2979,
    "(276, 356)": 2980,
    "(1096, 115)": 2981,
    "(110, 265)": 2982,
    "(1668, 755)": 2983,
    "(508, 115)": 2984,
    "(2551, 2346)": 2985,
    "(538, 1174)": 2986,
    "(105, 458)": 2987,
    "(309, 272)": 2988,
    "(1583, 2229)": 2989,
    "(117, 354)": 2990,
    "(419, 520)": 2991,
    "(652, 269)": 2992,
    "(325, 770)": 2993,
    "(119, 1303)": 2994,
    "(443, 533)": 2995,
    "(338, 2562)": 2996,
    "(843, 1824)": 2997,
    "(328, 398)": 2998,
    "(340, 271)": 2999
  },
  "vocab": {
    "0": "\u0000",
    "1": "\u0001",
    "2": "\u0002",
    "3": "\u0003",
    "4": "\u0004",
    "5": "\u0005",
    "6": "\u0006",
    "7": "\u0007",
    "8": "\b",
    "9": "\t",
    "10": "\n",
    "11": "\u000b",
    "12": "\f",
    "13": "\r",
    "14": "\u000e",
    "15": "\u000f",
    "16": "\u0010",
    "17": "\u0011",
    "18": "\u0012",
    "19": "\u0013",
    "20": "\u0014",
    "21": "\u0015",
    "22": "\u0016",
    "23": "\u0017",
    "24": "\u0018",
    "25": "\u0019",
    "26": "\u001a",
    "27": "\u001b",
    "28": "\u001c",
    "29": "\u001d",
    "30": "\u001e",
    "31": "\u001f",
    "32": " ",
    "33": "!",
    "34": "\"",
    "35": "#",
    "36": "$",
    "37": "%",
    "38": "&",
    "39": "'",
    "40": "(",
    "41": ")",
    "42": "*",
    "43": "+",
    "44": ",",
    "45": "-",
    "46": ".",
    "47": "/",
    "48": "0",
    "49": "1",
    "50": "2",
    "51": "3",
    "52": "4",
    "53": "5",
    "54": "6",
    "55": "7",
    "56": "8",
    "57": "9",
    "58": ":",
    "59": ";",
    "60": "<",
    "61": "=",
    "62": ">",
    "63": "?",
    "64": "@",
    "65": "A",
    "66": "B",
    "67": "C",
    "68": "D",
    "69": "E",
    "70": "F",
    "71": "G",
    "72": "H",
    "73": "I",
    "74": "J",
    "75": "K",
    "76": "L",
    "77": "M",
    "78": "N",
    "79": "O",
    "80": "P",
    "81": "Q",
    "82": "R",
    "83": "S",
    "84": "T",
    "85": "U",
    "86": "V",
    "87": "W",
    "88": "X",
    "89": "Y",
    "90": "Z",
    "91": "[",
    "92": "\\",
    "93": "]",
    "94": "^",
    "95": "_",
    "96": "`",
    "97": "a",
    "98": "b",
    "99": "c",
    "100": "d",
    "101": "e",
    "102": "f",
    "103": "g",
    "104": "h",
    "105": "i",
    "106": "j",
    "107": "k",
    "108": "l",
    "109": "m",
    "110": "n",
    "111": "o",
    "112": "p",
    "113": "q",
    "114": "r",
    "115": "s",
    "116": "t",
    "117": "u",
    "118": "v",
    "119": "w",
    "120": "x",
    "121": "y",
    "122": "z",
    "123": "{",
    "124": "|",
    "125": "}",
    "126": "~",
    "127": "",
    "128": "",
    "129": "",
    "130": "",
    "131": "",
    "132": "",
    "133": "",
    "134": "",
    "135": "",
    "136": "",
    "137": "",
    "138": "",
    "139": "",
    "140": "",
    "141": "",
    "142": "",
    "143": "",
    "144": "",
    "145": "",
    "146": "",
    "147": "",
    "148": "",
    "149": "",
    "150": "",
    "151": "",
    "152": "",
    "153": "",
    "154": "",
    "155": "",
    "156": "",
    "157": "",
    "158": "",
    "159": "",
    "160": " ",
    "161": "¡",
    "162": "¢",
    "163": "£",
    "164": "¤",
    "165": "¥",
    "166": "¦",
    "167": "§",
    "168": "¨",
    "169": "©",
    "170": "ª",
    "171": "«",
    "172": "¬",
    "173": "­",
    "174": "®",
    "175": "¯",
    "176": "°",
    "177": "±",
    "178": "²",
    "179": "³",
    "180": "´",
    "181": "µ",
    "182": "¶",
    "183": "·",
    "184": "¸",
    "185": "¹",
    "186": "º",
    "187": "»",
    "188": "¼",
    "189": "½",
    "190": "¾",
    "191": "¿",
    "192": "À",
    "193": "Á",
    "194": "Â",
    "195": "Ã",
    "196": "Ä",
    "197": "Å",
    "198": "Æ",
    "199": "Ç",
    "200": "È",
    "201": "É",
    "202": "Ê",
    "203": "Ë",
    "204": "Ì",
    "205": "Í",
    "206": "Î",
    "207": "Ï",
    "208": "Ð",
    "209": "Ñ",
    "210": "Ò",
    "211": "Ó",
    "212": "Ô",
    "213": "Õ",
    "214": "Ö",
    "215": "×",
    "216": "Ø",
    "217": "Ù",
    "218": "Ú",
    "219": "Û",
    "220": "Ü",
    "221": "Ý",
    "222": "Þ",
    "223": "ß",
    "224": "à",
    "225": "á",
    "226": "â",
    "227": "ã",
    "228": "ä",
    "229": "å",
    "230": "æ",
    "231": "ç",
    "232": "è",
    "233": "é",
    "234": "ê",
    "235": "ë",
    "236": "ì",
    "237": "í",
    "238": "î",
    "239": "ï",
    "240": "ð",
    "241": "ñ",
    "242": "ò",
    "243": "ó",
    "244": "ô",
    "245": "õ",
    "246": "ö",
    "247": "÷",
    "248": "ø",
    "249": "ù",
    "250": "ú",
    "251": "û",
    "252": "ü",
    "253": "ý",
    "254": "þ",
    "255": "ÿ",
    "256": "e ",
    "257": "d ",
    "258": "th",
    "259": ". ",
    "260": "t ",
    "261": "s ",
    "262": "an",
    "263": "er",
    "264": "y ",
    "265": "ed ",
    "266": "o ",
    "267": "in",
    "268": "the ",
    "269": "he ",
    "270": "wa",
    "271": ", ",
    "272": "and ",
    "273": "ou",
    "274": "a ",
    "275": "to ",
    "276": "en",
    "277": "was ",
    "278": "ar",
    "279": "g ",
    "280": "er ",
    "281": "on",
    "282": "l ",
    "283": "ha",
    "284": "or",
    "285": "ing ",
    "286": "om",
    "287": ".  ",
    "288": "it",
    "289": " the ",
    "290": "sa",
    "291": "hi",
    "292": "re",
    "293": "st",
    "294": "al",
    "295": "lo",
    "296": "it ",
    "297": "el",
    "298": "id",
    "299": "The ",
    "300": "ir",
    "301": "il",
    "302": "at ",
    "303": "ed to ",
    "304": ". H",
    "305": " a ",
    "306": "ac",
    "307": ". S",
    "308": "ti",
    "309": "her ",
    "310": "she ",
    "311": "ver",
    "312": "k ",
    "313": "le ",
    "314": "ere ",
    "315": ". He ",
    "316": "so ",
    "317": "ri",
    "318": "of",
    "319": "da",
    "320": "la",
    "321": "en ",
    "322": "ey ",
    "323": "w ",
    "324": "ld ",
    "325": "ed",
    "326": "pp",
    "327": "On",
    "328": ". She ",
    "329": "gh",
    "330": "y, ",
    "331": "be",
    "332": "an ",
    "333": "am",
    "334": "sh",
    "335": "to",
    "336": "his ",
    "337": "wi",
    "338": "un",
    "339": "ked ",
    "340": "up",
    "341": "le",
    "342": "for",
    "343": "\" ",
    "344": "li",
    "345": "oun",
    "346": "had ",
    "347": "ut ",
    "348": "very ",
    "349": "itt",
    "350": "ne",
    "351": "ch",
    "352": "that ",
    "353": "with",
    "354": "se",
    "355": "m ",
    "356": "ce ",
    "357": "ly ",
    "358": "ittle ",
    "359": "bo",
    "360": "! ",
    "361": "was a ",
    "362": "me",
    "363": "little ",
    "364": ". On",
    "365": "no",
    "366": "of ",
    "367": "wh",
    "368": "ad",
    "369": "ould ",
    "370": ". T",
    "371": "sm",
    "372": "ro",
    "373": "ve ",
    "374": "ke ",
    "375": "om ",
    "376": "they ",
    "377": "happ",
    "378": "ed and ",
    "379": "pla",
    "380": ". The ",
    "381": "in the ",
    "382": "as",
    "383": "ing",
    "384": "gir",
    "385": "there ",
    "386": "ge",
    "387": "ic",
    "388": "said",
    "389": ", \"",
    "390": "ec",
    "391": "ted to ",
    "392": "ome",
    "393": "fu",
    "394": "at",
    "395": "all ",
    "396": "ex",
    "397": "sp",
    "398": "was so ",
    "399": "ound ",
    "400": ". I",
    "401": "with ",
    "402": "you",
    "403": "wan",
    "404": "in ",
    "405": "fri",
    "406": "ur",
    "407": "girl ",
    "408": "loo",
    "409": "frien",
    "410": "st ",
    "411": "ent ",
    "412": "bi",
    "413": "ab",
    "414": "Ã¢",
    "415": "Ã¢â",
    "416": "Ã¢â",
    "417": "Ã¢â¬",
    "418": "'s ",
    "419": ".  The ",
    "420": ". Th",
    "421": "day, ",
    "422": "on a ",
    "423": "on ",
    "424": "to the ",
    "425": "ack ",
    "426": "ol",
    "427": "smil",
    "428": "go",
    "429": "id ",
    "430": "e and ",
    "431": "there was a ",
    "432": "the",
    "433": "were ",
    "434": "y and ",
    "435": "ag",
    "436": "upon a ",
    "437": "out ",
    "438": "car",
    "439": " and ",
    "440": "ce upon a ",
    "441": "ce upon a ti",
    "442": "friend",
    "443": "one ",
    "444": "ver ",
    "445": "thing ",
    "446": "for ",
    "447": "s and ",
    "448": "'t ",
    "449": "ent",
    "450": "\"  ",
    "451": "but ",
    "452": "ow",
    "453": "ke",
    "454": ". It ",
    "455": "said, \"",
    "456": "ed the ",
    "457": "ear",
    "458": "ght ",
    "459": "some",
    "460": "se ",
    "461": "said ",
    "462": "my ",
    "463": "big ",
    "464": "wanted to ",
    "465": "es",
    "466": "me ",
    "467": "ake ",
    "468": ". They ",
    "469": "p ",
    "470": "play",
    "471": ", and ",
    "472": "little girl ",
    "473": "hel",
    "474": "you ",
    "475": "im",
    "476": "is ",
    "477": "pl",
    "478": ". Once upon a ti",
    "479": "um",
    "480": "al ",
    "481": "gr",
    "482": "e day, ",
    "483": "went ",
    "484": "ome ",
    "485": "was very ",
    "486": "exc",
    "487": "dd",
    "488": "would ",
    "489": "way",
    "490": "be ",
    "491": "ful ",
    "492": "excit",
    "493": "ther",
    "494": "sid",
    "495": "ho",
    "496": "uc",
    "497": "ter ",
    "498": "looked ",
    "499": "I ",
    "500": "fe",
    "501": "ther ",
    "502": "day ",
    "503": "something ",
    "504": "me, ",
    "505": "n ",
    "506": "hat ",
    "507": "n't ",
    "508": "is",
    "509": "mu",
    "510": "could ",
    "511": "star",
    "512": "new ",
    "513": "fel",
    "514": "au",
    "515": "fr",
    "516": "around ",
    "517": "par",
    "518": "ved ",
    "519": "op",
    "520": "boy ",
    "521": "bu",
    "522": "very",
    "523": ", but ",
    "524": ". A",
    "525": "go ",
    "526": "qu",
    "527": "wor",
    "528": "f ",
    "529": "et",
    "530": "led ",
    "531": "ain",
    "532": "Jo",
    "533": "of the ",
    "534": "spec",
    "535": "it was ",
    "536": "ind ",
    "537": "ch ",
    "538": "tr",
    "539": "saw",
    "540": "king ",
    "541": "ld",
    "542": "nam",
    "543": "felt ",
    "544": "oo",
    "545": "speci",
    "546": "fun",
    "547": "out",
    "548": "wal",
    "549": "tt",
    "550": "old ",
    "551": "happy ",
    "552": "mom ",
    "553": "ill ",
    "554": "back ",
    "555": "as ",
    "556": "dec",
    "557": "ly, ",
    "558": ". E",
    "559": "mor",
    "560": "ght",
    "561": "But ",
    "562": "ran ",
    "563": "and",
    "564": "decid",
    "565": "him",
    "566": "him ",
    "567": "mad",
    "568": "when ",
    "569": ", the ",
    "570": "Wh",
    "571": "ach",
    "572": "have ",
    "573": "low",
    "574": "do",
    "575": "ve",
    "576": "ir ",
    "577": "who ",
    "578": "fi",
    "579": "toge",
    "580": ". Once upon a time, ",
    "581": "thing",
    "582": "udd",
    "583": "found ",
    "584": "asked ",
    "585": "up ",
    "586": "made ",
    "587": ", she ",
    "588": "pr",
    "589": "too",
    "590": "tre",
    "591": "ame ",
    "592": "str",
    "593": ".  On",
    "594": "br",
    "595": "ound",
    "596": "named ",
    "597": "saw a ",
    "598": "got ",
    "599": "decided to ",
    "600": "then ",
    "601": "bir",
    "602": "udden",
    "603": "smiled and ",
    "604": "mo",
    "605": "saw ",
    "606": "special ",
    "607": "on the ",
    "608": "pe",
    "609": "their ",
    "610": "like ",
    "611": "Jack ",
    "612": "ways ",
    "613": ".\"  ",
    "614": "had a ",
    "615": "cou",
    "616": ".  S",
    "617": "started to ",
    "618": "ard",
    "619": "play ",
    "620": "ug",
    "621": "ful",
    "622": "dow",
    "623": "wat",
    "624": "playing ",
    "625": "jo",
    "626": "always ",
    "627": "ack",
    "628": "her",
    "629": "clo",
    "630": "pped ",
    "631": "can ",
    "632": ". One day, ",
    "633": "thou",
    "634": "came ",
    "635": "sur",
    "636": "get ",
    "637": "ep",
    "638": "again",
    "639": "ave ",
    "640": "Ã¢â¬Å",
    "641": "Ã¢â¬Å",
    "642": "ly",
    "643": "vent",
    "644": "what ",
    "645": "than",
    "646": "way ",
    "647": "e the ",
    "648": "never ",
    "649": "ily ",
    "650": "es ",
    "651": "di",
    "652": "e, ",
    "653": "sk",
    "654": "Th",
    "655": "veryone ",
    "656": "friends ",
    "657": "scar",
    "658": "put ",
    "659": "Ã¢â¬â",
    "660": ". Once upon a time, there was a ",
    "661": "home",
    "662": "so",
    "663": "could",
    "664": "take ",
    "665": "Joh",
    "666": "sun",
    "667": "ea",
    "668": "hear",
    "669": "ure",
    "670": "make ",
    "671": "der",
    "672": "some ",
    "673": "Ã¢â¬ ",
    "674": "expl",
    "675": "explor",
    "676": "mom",
    "677": "not ",
    "678": "ts ",
    "679": "about ",
    "680": "at the ",
    "681": "im ",
    "682": "too ",
    "683": "help",
    "684": "friends",
    "685": "!\" ",
    "686": "ust ",
    "687": "!  ",
    "688": "outsid",
    "689": ". He was ",
    "690": "ted ",
    "691": "them ",
    "692": ".  One day, ",
    "693": "ast",
    "694": "cre",
    "695": "goo",
    "696": "ugh",
    "697": "co",
    "698": "ni",
    "699": "he was ",
    "700": "uddenly, ",
    "701": "lov",
    "702": "Ã¢â¬â",
    "703": "Ã¢â¬â¢",
    "704": "lon",
    "705": "ed her ",
    "706": "ally ",
    "707": "day",
    "708": "tic",
    "709": "sel",
    "710": "ed, ",
    "711": "war",
    "712": "bl",
    "713": "man ",
    "714": "thought ",
    "715": "find ",
    "716": "Luc",
    "717": "laugh",
    "718": "When ",
    "719": "care",
    "720": ". It was ",
    "721": "me there was a ",
    "722": "help ",
    "723": "!\"  ",
    "724": "pu",
    "725": "t's ",
    "726": "abb",
    "727": "ev",
    "728": "He ",
    "729": "sta",
    "730": "was so excit",
    "731": "thanked ",
    "732": "we",
    "733": "how ",
    "734": "couldn't ",
    "735": "she was ",
    "736": ". But ",
    "737": "ar ",
    "738": "hou",
    "739": "Fr",
    "740": "happy",
    "741": "po",
    "742": "gard",
    "743": "mb",
    "744": "hug",
    "745": "ant ",
    "746": "ick",
    "747": "knew ",
    "748": "cal",
    "749": "fore",
    "750": "tw",
    "751": ". M",
    "752": "el ",
    "753": "oud ",
    "754": "now ",
    "755": "dy ",
    "756": "time ",
    "757": "ed that ",
    "758": "other ",
    "759": "one",
    "760": "am ",
    "761": "tri",
    "762": "ang",
    "763": "and the ",
    "764": "big",
    "765": "did",
    "766": "advent",
    "767": ", so ",
    "768": "fter ",
    "769": "th ",
    "770": ". \"",
    "771": "heard ",
    "772": "pre",
    "773": "pt ",
    "774": ".  \"",
    "775": "com",
    "776": "ach ",
    "777": "te",
    "778": "ny ",
    "779": "for a ",
    "780": "ts of ",
    "781": "do ",
    "782": "til ",
    "783": "much ",
    "784": "ss",
    "785": "ff",
    "786": "together",
    "787": "cr",
    "788": "in a ",
    "789": ".\" ",
    "790": ".  A",
    "791": "chi",
    "792": "John ",
    "793": "cau",
    "794": "loved to ",
    "795": ", he ",
    "796": "ed a ",
    "797": "beau",
    "798": "two ",
    "799": "ep ",
    "800": "watch",
    "801": "plac",
    "802": "whi",
    "803": "gi",
    "804": "us",
    "805": "lear",
    "806": "until ",
    "807": "r ",
    "808": "with the ",
    "809": "more ",
    "810": "sh ",
    "811": "gre",
    "812": "see ",
    "813": "run",
    "814": "insid",
    "815": "from",
    "816": "ll ",
    "817": "kept ",
    "818": "won",
    "819": "or ",
    "820": "small ",
    "821": "lots of ",
    "822": "clos",
    "823": "just ",
    "824": "beauti",
    "825": ". Once upon a time there was a ",
    "826": "little boy ",
    "827": "pic",
    "828": "with a ",
    "829": "notic",
    "830": ", Ã¢â¬Å",
    "831": "man",
    "832": "col",
    "833": "fun ",
    "834": "gave ",
    "835": "ite ",
    "836": "if ",
    "837": "around the ",
    "838": "ump",
    "839": "stor",
    "840": "az",
    "841": "! On",
    "842": "ing the ",
    "843": ". She was ",
    "844": "pri",
    "845": "Lucy ",
    "846": "happy and ",
    "847": "things ",
    "848": "ous ",
    "849": "ind",
    "850": "year",
    "851": "ob",
    "852": "down",
    "853": "called ",
    "854": "pa",
    "855": "har",
    "856": "ough",
    "857": "lea",
    "858": "together ",
    "859": "from ",
    "860": "even ",
    "861": "my",
    "862": "feel",
    "863": "d and ",
    "864": "this ",
    "865": "?\" ",
    "866": "ing and ",
    "867": "Let",
    "868": "e was ",
    "869": "to be ",
    "870": "You",
    "871": "park",
    "872": "with her ",
    "873": "by",
    "874": ".  M",
    "875": "all the ",
    "876": "didn't ",
    "877": "cu",
    "878": "surpri",
    "879": "over ",
    "880": "anim",
    "881": "away",
    "882": "Ã¢â¬  ",
    "883": "Da",
    "884": "are ",
    "885": "told ",
    "886": "time",
    "887": "he had ",
    "888": "into the ",
    "889": "x ",
    "890": "t and ",
    "891": "its ",
    "892": "shin",
    "893": "that she ",
    "894": "ah",
    "895": "quick",
    "896": "de",
    "897": "per",
    "898": "come ",
    "899": "bel",
    "900": "lived ",
    "901": "best ",
    "902": "From ",
    "903": "bird ",
    "904": "any",
    "905": "adventure",
    "906": "joy",
    "907": "tter",
    "908": "ow ",
    "909": "s, ",
    "910": "ing to ",
    "911": ". Every ",
    "912": "ving ",
    "913": "ever ",
    "914": "by ",
    "915": "sto",
    "916": "amaz",
    "917": "flow",
    "918": "mag",
    "919": "sad",
    "920": "fle",
    "921": "able ",
    "922": "tur",
    "923": "ck",
    "924": "olly ",
    "925": "proud ",
    "926": "feeling ",
    "927": "no ",
    "928": "beautiful ",
    "929": "del",
    "930": "em",
    "931": "thre",
    "932": "found a ",
    "933": "fin",
    "934": "ry ",
    "935": "good",
    "936": "end",
    "937": "ed, \"",
    "938": "Jan",
    "939": "Mom",
    "940": "ong",
    "941": "feel ",
    "942": "Tim ",
    "943": "con",
    "944": "with his ",
    "945": "fam",
    "946": "ey",
    "947": "from the ",
    "948": "away ",
    "949": "ds ",
    "950": "es and ",
    "951": "arah",
    "952": "e to ",
    "953": "open",
    "954": "wonder",
    "955": ",\" ",
    "956": "hugg",
    "957": ". One ",
    "958": "ma",
    "959": "fa",
    "960": "dre",
    "961": "immy ",
    "962": "er and ",
    "963": "becau",
    "964": "because ",
    "965": "each ",
    "966": "friend ",
    "967": "now",
    "968": "everyone ",
    "969": "loved ",
    "970": "peop",
    "971": "said, Ã¢â¬Å",
    "972": "back",
    "973": ", they ",
    "974": "ter",
    "975": "will ",
    "976": "was so happy ",
    "977": "every ",
    "978": "beg",
    "979": "walking ",
    "980": "soon ",
    "981": "?\"  ",
    "982": "ed it ",
    "983": ".  When ",
    "984": "mou",
    "985": "smiled ",
    "986": "magic",
    "987": "your ",
    "988": "them",
    "989": "You ",
    "990": "ked to ",
    "991": "k and ",
    "992": "ce there was a ",
    "993": "Let's ",
    "994": "flew ",
    "995": "careful",
    "996": "quickly ",
    "997": "t to ",
    "998": "ed his ",
    "999": "row",
    "1000": "where ",
    "1001": "still ",
    "1002": "around",
    "1003": "foo",
    "1004": "looking ",
    "1005": "on't ",
    "1006": ". It was a ",
    "1007": "animal",
    "1008": "learn",
    "1009": "goodby",
    "1010": "for the ",
    "1011": "ace",
    "1012": "he could ",
    "1013": "si",
    "1014": "s. He ",
    "1015": "jump",
    "1016": "ed. He ",
    "1017": "ie",
    "1018": "anc",
    "1019": "up and ",
    "1020": "Bob",
    "1021": "nd ",
    "1022": "cle",
    "1023": "every",
    "1024": "! S",
    "1025": "self",
    "1026": "en the ",
    "1027": "rabb",
    "1028": "in her ",
    "1029": "room",
    "1030": "water ",
    "1031": "started ",
    "1032": ".  Th",
    "1033": "che",
    "1034": "an to ",
    "1035": "people ",
    "1036": "Dais",
    "1037": "read",
    "1038": "our",
    "1039": "girl",
    "1040": "ong ",
    "1041": "ed. She ",
    "1042": "Ã¢â¬â¢s ",
    "1043": "ure ",
    "1044": "y to ",
    "1045": "memb",
    "1046": "a big ",
    "1047": "right ",
    "1048": "ummy ",
    "1049": "dad ",
    "1050": "ice ",
    "1051": "I'",
    "1052": "liked to ",
    "1053": "heard a ",
    "1054": "garden",
    "1055": "off ",
    "1056": "! Once upon a ti",
    "1057": "we ",
    "1058": ". W",
    "1059": "fil",
    "1060": "walked ",
    "1061": ". Suddenly, ",
    "1062": "ss ",
    "1063": "they were ",
    "1064": "did ",
    "1065": "t of ",
    "1066": "took ",
    "1067": "house",
    "1068": "! He ",
    "1069": "ru",
    "1070": "sky",
    "1071": "squ",
    "1072": "stay ",
    "1073": ". Her ",
    "1074": "rememb",
    "1075": "ain ",
    "1076": "ground",
    "1077": "ask",
    "1078": "took",
    "1079": "spo",
    "1080": "began to ",
    "1081": "three ",
    "1082": ". J",
    "1083": "little girl named ",
    "1084": "shar",
    "1085": "all",
    "1086": "cat",
    "1087": "t the ",
    "1088": "ca",
    "1089": "hand",
    "1090": "ba",
    "1091": "smiled and said, \"",
    "1092": "ank ",
    "1093": "arah ",
    "1094": ". As ",
    "1095": "ate ",
    "1096": "flower",
    "1097": ".\"  The ",
    "1098": "vo",
    "1099": "other",
    "1100": "both ",
    "1101": "know ",
    "1102": "rea",
    "1103": "down ",
    "1104": "happen",
    "1105": "was",
    "1106": "around and ",
    "1107": "es, ",
    "1108": "nex",
    "1109": "sun ",
    "1110": "toy",
    "1111": "ning ",
    "1112": ". Everyone ",
    "1113": "s were ",
    "1114": "toy ",
    "1115": "look",
    "1116": "fol",
    "1117": "enjoy",
    "1118": "she could ",
    "1119": "her mom ",
    "1120": "big, ",
    "1121": "the p",
    "1122": "long ",
    "1123": ".  But ",
    "1124": ".  Suddenly, ",
    "1125": "pupp",
    "1126": "home ",
    "1127": "tin",
    "1128": "cha",
    "1129": "It ",
    "1130": "show",
    "1131": "bro",
    "1132": "ous",
    "1133": "curi",
    "1134": "garden ",
    "1135": ": ",
    "1136": "ste",
    "1137": "she had ",
    "1138": "it and ",
    "1139": ". From ",
    "1140": "on, ",
    "1141": "great ",
    "1142": "fast",
    "1143": "tried to ",
    "1144": "gu",
    "1145": "rough",
    "1146": "can",
    "1147": "bb",
    "1148": "ill",
    "1149": "What ",
    "1150": "went to ",
    "1151": "next ",
    "1152": "e. She ",
    "1153": "water",
    "1154": ". They were ",
    "1155": "list",
    "1156": "dar",
    "1157": "look ",
    "1158": "boat ",
    "1159": "ra",
    "1160": "nodd",
    "1161": "three year",
    "1162": "bit ",
    "1163": "Lily ",
    "1164": "diff",
    "1165": "he",
    "1166": "e. He ",
    "1167": "proud of ",
    "1168": "bug ",
    "1169": "lu",
    "1170": ".  T",
    "1171": "careful ",
    "1172": "it to ",
    "1173": ". His ",
    "1174": "uck",
    "1175": "been ",
    "1176": "I'm ",
    "1177": "An",
    "1178": "arm",
    "1179": "park ",
    "1180": "became ",
    "1181": "ious ",
    "1182": "mi",
    "1183": "tal",
    "1184": "tast",
    "1185": ". Once there was a ",
    "1186": "Jack",
    "1187": "old man ",
    "1188": "Bob ",
    "1189": "grabb",
    "1190": "mum ",
    "1191": "su",
    "1192": "Jane ",
    "1193": ". B",
    "1194": "good ",
    "1195": ". When ",
    "1196": "went to the ",
    "1197": "plan",
    "1198": "et ",
    "1199": "take a ",
    "1200": "bird",
    "1201": "y. She ",
    "1202": "smiled",
    "1203": "uck ",
    "1204": "hat's ",
    "1205": "laughed and ",
    "1206": "played ",
    "1207": "o, ",
    "1208": "awa",
    "1209": "fre",
    "1210": "swe",
    "1211": "end ",
    "1212": "fir",
    "1213": "idea",
    "1214": "through",
    "1215": "bear ",
    "1216": "ice",
    "1217": "mon",
    "1218": "that",
    "1219": "filled ",
    "1220": "ell ",
    "1221": "that the ",
    "1222": ". After ",
    "1223": "many ",
    "1224": ". I ",
    "1225": "! She ",
    "1226": "hur",
    "1227": "in his ",
    "1228": "family ",
    "1229": "ia ",
    "1230": "fly ",
    "1231": "wonderful ",
    "1232": "my and ",
    "1233": "ck ",
    "1234": "arri",
    "1235": "delic",
    "1236": "- ",
    "1237": "gla",
    "1238": "Dad",
    "1239": "need",
    "1240": "on her ",
    "1241": "Lil",
    "1242": "fas",
    "1243": "to go ",
    "1244": "long",
    "1245": "when she ",
    "1246": "having ",
    "1247": "room ",
    "1248": "iz",
    "1249": "cla",
    "1250": "saw the ",
    "1251": "bow",
    "1252": "ink ",
    "1253": "ig",
    "1254": "carefully ",
    "1255": "ally, ",
    "1256": "!  The ",
    "1257": "surpris",
    "1258": ".  He ",
    "1259": "and said, \"",
    "1260": ". And ",
    "1261": "mm",
    "1262": "want to ",
    "1263": "don't ",
    "1264": "cat ",
    "1265": "ll",
    "1266": "slow",
    "1267": "ort",
    "1268": "picked ",
    "1269": "up the ",
    "1270": "shed ",
    "1271": "box",
    "1272": "mouse ",
    "1273": "ta",
    "1274": ". Then ",
    "1275": "turn",
    "1276": ". One day ",
    "1277": "noticed ",
    "1278": "strang",
    "1279": "mommy ",
    "1280": "sure ",
    "1281": "waved ",
    "1282": "ary ",
    "1283": "fish ",
    "1284": "differ",
    "1285": "So ",
    "1286": "kind ",
    "1287": "ass",
    "1288": "ue ",
    "1289": "to make ",
    "1290": "give ",
    "1291": "special",
    "1292": "thanked the ",
    "1293": "en, ",
    "1294": "ket",
    "1295": "pli",
    "1296": "three years ",
    "1297": "on his ",
    "1298": "Daisy ",
    "1299": "old and ",
    "1300": "prin",
    "1301": "low ",
    "1302": "il ",
    "1303": "ell",
    "1304": "that he ",
    "1305": "off",
    "1306": "bal",
    "1307": "Jack and ",
    "1308": "app",
    "1309": "me, there was a ",
    "1310": "uddenly ",
    "1311": "felt so ",
    "1312": "ket ",
    "1313": "y's ",
    "1314": "asked the ",
    "1315": "l of ",
    "1316": ". Tim ",
    "1317": "to his ",
    "1318": "stre",
    "1319": "real",
    "1320": "reli",
    "1321": "jumped ",
    "1322": "bor",
    "1323": "His ",
    "1324": "gh ",
    "1325": ": \"",
    "1326": "repli",
    "1327": "befor",
    "1328": "brave ",
    "1329": "rabbit ",
    "1330": "magical ",
    "1331": ". So ",
    "1332": ".Ã¢â¬  ",
    "1333": "sw",
    "1334": "min",
    "1335": "John",
    "1336": "dro",
    "1337": "fish",
    "1338": "!\"  The ",
    "1339": "being ",
    "1340": "e. ",
    "1341": "the best ",
    "1342": "nice ",
    "1343": "dis",
    "1344": "cho",
    "1345": "illy ",
    "1346": "able",
    "1347": "why ",
    "1348": "sn",
    "1349": "secre",
    "1350": "out of the ",
    "1351": "dr",
    "1352": "tou",
    "1353": "wr",
    "1354": "fly",
    "1355": "old",
    "1356": "shout",
    "1357": "ventu",
    "1358": "parent",
    "1359": "din",
    "1360": "ely ",
    "1361": "noi",
    "1362": "woo",
    "1363": "butter",
    "1364": "sad ",
    "1365": "there",
    "1366": ". So",
    "1367": "Ma",
    "1368": "imp",
    "1369": "through the ",
    "1370": "y. He ",
    "1371": "his mom ",
    "1372": "show ",
    "1373": "stay",
    "1374": "Gr",
    "1375": "Joe ",
    "1376": "cli",
    "1377": "seen ",
    "1378": "puppy ",
    "1379": "Her ",
    "1380": "Sarah ",
    "1381": "! The ",
    "1382": "hard ",
    "1383": "so much ",
    "1384": "ue",
    "1385": "bab",
    "1386": "color",
    "1387": "closer ",
    "1388": "he would ",
    "1389": "pi",
    "1390": "work",
    "1391": "It's ",
    "1392": ".  The little girl ",
    "1393": "kitt",
    "1394": "stepped ",
    "1395": "glad ",
    "1396": "before",
    "1397": "finally ",
    "1398": "cry",
    "1399": "saw a big ",
    "1400": "bet",
    "1401": "lot of ",
    "1402": "ing in the ",
    "1403": "fav",
    "1404": "that day ",
    "1405": "outside",
    "1406": "ble",
    "1407": "most ",
    "1408": "night",
    "1409": "igh",
    "1410": "sear",
    "1411": "coming ",
    "1412": "there were ",
    "1413": "had been ",
    "1414": "mat",
    "1415": "to have ",
    "1416": "Ã¢â¬â¢t ",
    "1417": "little girl",
    "1418": "watched ",
    "1419": "Little ",
    "1420": "ge ",
    "1421": "when he ",
    "1422": "tree ",
    "1423": "better",
    "1424": "remember",
    "1425": "different ",
    "1426": "Tim",
    "1427": ".  One ",
    "1428": ". In",
    "1429": "walk",
    "1430": "sle",
    "1431": "forest",
    "1432": "ground ",
    "1433": "Tom ",
    "1434": "took the ",
    "1435": "sor",
    "1436": ". She wanted to ",
    "1437": "also ",
    "1438": "ner",
    "1439": "sha",
    "1440": "only ",
    "1441": "fo",
    "1442": "explore the ",
    "1443": "few ",
    "1444": "it was time ",
    "1445": "Fin",
    "1446": "gam",
    "1447": "ace ",
    "1448": "should ",
    "1449": "oud",
    "1450": "was very excit",
    "1451": "que",
    "1452": "outside ",
    "1453": "keep ",
    "1454": "hugged ",
    "1455": "pon",
    "1456": "able to ",
    "1457": "it's ",
    "1458": "hea",
    "1459": "contin",
    "1460": "continu",
    "1461": "filled with ",
    "1462": "red ",
    "1463": "cheer",
    "1464": "ing, ",
    "1465": "bigg",
    "1466": "stayed ",
    "1467": "climb",
    "1468": "reach",
    "1469": "tting ",
    "1470": "really ",
    "1471": "follow",
    "1472": "Can ",
    "1473": "Yes, ",
    "1474": "strong",
    "1475": ". N",
    "1476": "of a ",
    "1477": "ez",
    "1478": "better ",
    "1479": "full of ",
    "1480": "loud ",
    "1481": "vis",
    "1482": ". He wanted to ",
    "1483": "oc",
    "1484": "as he ",
    "1485": "ok",
    "1486": "tir",
    "1487": "enny ",
    "1488": "use ",
    "1489": "world ",
    "1490": "into ",
    "1491": "after ",
    "1492": "less",
    "1493": "was so excited",
    "1494": "cover",
    "1495": "fro",
    "1496": "seem",
    "1497": ". The little girl ",
    "1498": "hopped ",
    "1499": "tion",
    "1500": "child",
    "1501": "brea",
    "1502": "he wanted to ",
    "1503": "der ",
    "1504": "near",
    "1505": "warm ",
    "1506": "of her ",
    "1507": ". They all ",
    "1508": "tow",
    "1509": "They ",
    "1510": "stopped ",
    "1511": "door",
    "1512": "sound",
    "1513": "back to ",
    "1514": "things",
    "1515": "wanted ",
    "1516": ", so he ",
    "1517": "scared and ",
    "1518": "umb",
    "1519": "day, the ",
    "1520": "!Ã¢â¬  ",
    "1521": "someone ",
    "1522": "sail",
    "1523": ". Every day ",
    "1524": "fini",
    "1525": "dri",
    "1526": "leave",
    "1527": "said goodby",
    "1528": "wait",
    "1529": "in the park",
    "1530": "fast ",
    "1531": "kne",
    "1532": "import",
    "1533": "knew that ",
    "1534": "bra",
    "1535": "asked, \"",
    "1536": "ster",
    "1537": "try",
    "1538": "danc",
    "1539": "run ",
    "1540": "and it ",
    "1541": "inside",
    "1542": "amazing ",
    "1543": "right",
    "1544": "pati",
    "1545": "truck ",
    "1546": ".  J",
    "1547": "getting ",
    "1548": "! Once upon a time, there was a ",
    "1549": "pro",
    "1550": ". From then ",
    "1551": "? ",
    "1552": "stopp",
    "1553": "baby ",
    "1554": "fig",
    "1555": "na",
    "1556": "play with ",
    "1557": "did not ",
    "1558": ". All ",
    "1559": "on, the ",
    "1560": "pret",
    "1561": "asked her ",
    "1562": "again ",
    "1563": "running ",
    "1564": "ves",
    "1565": "going ",
    "1566": "dad",
    "1567": "know",
    "1568": "more",
    "1569": "bed",
    "1570": "saf",
    "1571": "my, ",
    "1572": "agre",
    "1573": "how to ",
    "1574": ". Then",
    "1575": " a big ",
    "1576": "se and ",
    "1577": "ark",
    "1578": "te ",
    "1579": "ed, but ",
    "1580": ".  E",
    "1581": "aw",
    "1582": "bright ",
    "1583": "there were two ",
    "1584": "decided to go ",
    "1585": "perf",
    "1586": "perfec",
    "1587": "as she ",
    "1588": "mir",
    "1589": "bear",
    "1590": "looked around and ",
    "1591": ".  They ",
    "1592": "explore ",
    "1593": "gent",
    "1594": "zi",
    "1595": "blan",
    "1596": "car ",
    "1597": "ay",
    "1598": "to see ",
    "1599": "yel",
    "1600": ", so she ",
    "1601": "opened the ",
    "1602": "deep ",
    "1603": "ought ",
    "1604": "himself",
    "1605": "so he ",
    "1606": "listen",
    "1607": "she would ",
    "1608": "much",
    "1609": "try ",
    "1610": "put it ",
    "1611": "kind",
    "1612": "ate",
    "1613": "that it ",
    "1614": "voice ",
    "1615": "beh",
    "1616": "youn",
    "1617": "the little girl ",
    "1618": "waved goodby",
    "1619": "surprise",
    "1620": "everything ",
    "1621": "ting ",
    "1622": "child ",
    "1623": "Molly ",
    "1624": "him and ",
    "1625": "ommy ",
    "1626": "ready to ",
    "1627": "looked at ",
    "1628": "ed to the ",
    "1629": "animals ",
    "1630": "while ",
    "1631": "little boy named ",
    "1632": "pain",
    "1633": "important ",
    "1634": "sof",
    "1635": "re ",
    "1636": "realiz",
    "1637": "said, \"I ",
    "1638": "buil",
    "1639": "was so happy",
    "1640": "no long",
    "1641": "no longer ",
    "1642": "smile ",
    "1643": "ster ",
    "1644": "elep",
    "1645": "eleph",
    "1646": ". She had ",
    "1647": "Finally, ",
    "1648": "said \"",
    "1649": "self ",
    "1650": "world",
    "1651": ".  One day ",
    "1652": "before ",
    "1653": "acro",
    "1654": "across ",
    "1655": "wards ",
    "1656": "made a ",
    "1657": "smile",
    "1658": "mum",
    "1659": ".  The girl ",
    "1660": "each other",
    "1661": "hor",
    "1662": "happily ",
    "1663": "light ",
    "1664": "for her ",
    "1665": "slowly ",
    "1666": "Sam ",
    "1667": "every day",
    "1668": "ted",
    "1669": "bun",
    "1670": "forest ",
    "1671": "prett",
    "1672": "luff",
    "1673": "eat",
    "1674": "for his ",
    "1675": "back and ",
    "1676": "bar",
    "1677": "you can ",
    "1678": ". You ",
    "1679": "s to ",
    "1680": "bush",
    "1681": "found the ",
    "1682": "That ",
    "1683": "noticed a ",
    "1684": "ange",
    "1685": "saw something ",
    "1686": "?\"  The ",
    "1687": "young ",
    "1688": "strong ",
    "1689": "noise",
    "1690": ".  From ",
    "1691": "ghty ",
    "1692": "strange ",
    "1693": "creat",
    "1694": "a special ",
    "1695": "land",
    "1696": ". There ",
    "1697": "behind ",
    "1698": ". John ",
    "1699": "childr",
    "1700": "butterfly ",
    "1701": "tree",
    "1702": "liked ",
    "1703": "Thank ",
    "1704": ", and the ",
    "1705": "dog ",
    "1706": "I can ",
    "1707": "his friends ",
    "1708": "rid",
    "1709": "bug",
    "1710": "was happy ",
    "1711": ",\" said ",
    "1712": "worri",
    "1713": "secret ",
    "1714": "was playing ",
    "1715": "there was ",
    "1716": ".  She ",
    "1717": "prom",
    "1718": "ink",
    "1719": "rec",
    "1720": "to get ",
    "1721": "eat ",
    "1722": "enough",
    "1723": "ballo",
    "1724": "ather",
    "1725": "Mommy ",
    "1726": "it would ",
    "1727": "than ",
    "1728": "belie",
    "1729": "under",
    "1730": "wasn't ",
    "1731": ". Jack ",
    "1732": "a bit ",
    "1733": "towards ",
    "1734": "black ",
    "1735": "see",
    "1736": "ase ",
    "1737": "and he ",
    "1738": "ugg",
    "1739": "excited to ",
    "1740": "fur",
    "1741": "back home",
    "1742": ". After a ",
    "1743": "swi",
    "1744": "No, ",
    "1745": "big and ",
    "1746": "while",
    "1747": "favor",
    "1748": "win",
    "1749": "sat ",
    "1750": "it was too ",
    "1751": "story ",
    "1752": "neigh",
    "1753": "happy, ",
    "1754": "until the ",
    "1755": "ic ",
    "1756": "him to ",
    "1757": "flo",
    "1758": "who lived ",
    "1759": ". She was very ",
    "1760": "ty",
    "1761": "know what ",
    "1762": ", but he ",
    "1763": "search",
    "1764": "who loved to ",
    "1765": "blo",
    "1766": "light",
    "1767": "in the sky",
    "1768": "Jill ",
    "1769": "said: \"",
    "1770": "That's ",
    "1771": "seen",
    "1772": "vi",
    "1773": "it, ",
    "1774": "ome and ",
    "1775": "believe ",
    "1776": "famil",
    "1777": "shop",
    "1778": "underst",
    "1779": "happened",
    "1780": "let ",
    "1781": "nau",
    "1782": "it was a ",
    "1783": "squir",
    "1784": "Daddy ",
    "1785": "mother ",
    "1786": "appear",
    "1787": "outside and ",
    "1788": "d, ",
    "1789": "said y",
    "1790": "enjoyed ",
    "1791": "olly",
    "1792": "tion ",
    "1793": "air",
    "1794": "sol",
    "1795": "le and ",
    "1796": "fter",
    "1797": ". One day, a ",
    "1798": "wind ",
    "1799": "scared ",
    "1800": "e to the ",
    "1801": "they would ",
    "1802": "was so happy and ",
    "1803": "friendly ",
    "1804": "t, ",
    "1805": "had an ",
    "1806": "it. He ",
    "1807": "teac",
    "1808": "teacher ",
    "1809": ". To",
    "1810": "wait to ",
    "1811": "boat",
    "1812": "gg",
    "1813": "touch",
    "1814": "coo",
    "1815": "made her ",
    "1816": "face",
    "1817": " and the ",
    "1818": ".  So ",
    "1819": "cl",
    "1820": "high ",
    "1821": "ventually ",
    "1822": "was so excited to ",
    "1823": ". Every",
    "1824": "three years old and ",
    "1825": "ed in ",
    "1826": "anything ",
    "1827": "!Ã¢â¬ ",
    "1828": "here",
    "1829": "ddy ",
    "1830": "herself",
    "1831": "Jimmy ",
    "1832": "have a ",
    "1833": "mead",
    "1834": "over to ",
    "1835": "figure ",
    "1836": "wood",
    "1837": "cir",
    "1838": "worked ",
    "1839": "ood ",
    "1840": "away and ",
    "1841": "making ",
    "1842": "lled ",
    "1843": "remember ",
    "1844": "?\" The ",
    "1845": "pen",
    "1846": "girl named ",
    "1847": "pping ",
    "1848": "ug ",
    "1849": "put the ",
    "1850": "white ",
    "1851": "Timmy ",
    "1852": "hoo",
    "1853": "ch a ",
    "1854": "yummy ",
    "1855": "Mom ",
    "1856": "fac",
    "1857": "like a ",
    "1858": "safe",
    "1859": "must ",
    "1860": "back to the ",
    "1861": "trying to ",
    "1862": "promis",
    "1863": "about the ",
    "1864": "Don't ",
    "1865": "out of ",
    "1866": "see the ",
    "1867": "anger",
    "1868": "birds ",
    "1869": "ient ",
    "1870": "arrived ",
    "1871": "to do",
    "1872": "as the ",
    "1873": "replied, \"",
    "1874": "noticed something ",
    "1875": "then, ",
    "1876": "fla",
    "1877": ".  Lucy ",
    "1878": "coun",
    "1879": "perfect ",
    "1880": "first ",
    "1881": "We ",
    "1882": "excited",
    "1883": "to find ",
    "1884": "squirre",
    "1885": "pow",
    "1886": "ous and ",
    "1887": "tain",
    "1888": "tor",
    "1889": "on an ",
    "1890": ". Molly ",
    "1891": "sunshin",
    "1892": "shi",
    "1893": "Do ",
    "1894": "cast",
    "1895": "day and ",
    "1896": "there lived ",
    "1897": "said, \"Let's ",
    "1898": "lin",
    "1899": "kid",
    "1900": "walk ",
    "1901": "boy named ",
    "1902": "dark ",
    "1903": "went",
    "1904": "on the ground",
    "1905": "tall ",
    "1906": "our ",
    "1907": ". But the ",
    "1908": "ed to be ",
    "1909": "expla",
    "1910": "gone",
    "1911": "myster",
    "1912": "shiny ",
    "1913": ". A ",
    "1914": "time, ",
    "1915": "are you ",
    "1916": ". Every day, ",
    "1917": "box ",
    "1918": "ling ",
    "1919": "ket and ",
    "1920": "looks ",
    "1921": "row ",
    "1922": "so she ",
    "1923": "boy",
    "1924": "looking for ",
    "1925": "of them ",
    "1926": "care ",
    "1927": "ven ",
    "1928": "tell ",
    "1929": "eng",
    "1930": "deli",
    "1931": "don",
    "1932": "same ",
    "1933": "something special",
    "1934": "ever",
    "1935": "held ",
    "1936": "hour",
    "1937": "spark",
    "1938": "ard ",
    "1939": "enever ",
    "1940": "ut",
    "1941": "cep",
    "1942": ", who ",
    "1943": "ang ",
    "1944": "learn ",
    "1945": "fru",
    "1946": "they had ",
    "1947": "watched the ",
    "1948": "after",
    "1949": "Do you ",
    "1950": "a little ",
    "1951": "s. She ",
    "1952": "favorite ",
    "1953": "there lived a ",
    "1954": "down and ",
    "1955": "down the ",
    "1956": "laughed ",
    "1957": "!\" The ",
    "1958": "each other ",
    "1959": "brave",
    "1960": ", and they ",
    "1961": "y and the ",
    "1962": "green ",
    "1963": "grass",
    "1964": "game ",
    "1965": "together and ",
    "1966": "yard",
    "1967": "brought ",
    "1968": "read ",
    "1969": "to her ",
    "1970": "pres",
    "1971": "want ",
    "1972": "monster ",
    "1973": "caught ",
    "1974": "pick ",
    "1975": "inside ",
    "1976": "Why ",
    "1977": "an old ",
    "1978": "told her ",
    "1979": "up to the ",
    "1980": "itch",
    "1981": "place ",
    "1982": "s. ",
    "1983": "home and ",
    "1984": "couldn't believe ",
    "1985": "ould",
    "1986": "suddenly ",
    "1987": ". Once upon a time ",
    "1988": "! Once upon a time there was a ",
    "1989": "brother ",
    "1990": "belong",
    "1991": "fox ",
    "1992": "iry ",
    "1993": "far ",
    "1994": "fort",
    "1995": "morn",
    "1996": "top",
    "1997": ".  John ",
    "1998": "set ",
    "1999": "closer",
    "2000": "grabbed the ",
    "2001": "rock",
    "2002": "pas",
    "2003": "going to ",
    "2004": "grand",
    "2005": ". Her mom ",
    "2006": "mma ",
    "2007": "squa",
    "2008": "drove ",
    "2009": "any ",
    "2010": ".  One day, the ",
    "2011": ".\" The ",
    "2012": "b ",
    "2013": "spla",
    "2014": "to play ",
    "2015": "!\"",
    "2016": "ebr",
    "2017": "listen ",
    "2018": "dy",
    "2019": "when they ",
    "2020": "wear",
    "2021": "sleep",
    "2022": "eyes and ",
    "2023": "Hel",
    "2024": "! I ",
    "2025": "cour",
    "2026": "'re ",
    "2027": "looked at the ",
    "2028": "pretty ",
    "2029": "hard",
    "2030": "rem",
    "2031": "was always ",
    "2032": "spent ",
    "2033": "rock ",
    "2034": "colorful ",
    "2035": "smel",
    "2036": ".  At the ",
    "2037": "Tom",
    "2038": "ide",
    "2039": "eyes",
    "2040": "took a ",
    "2041": "bad ",
    "2042": "in the garden",
    "2043": "cream",
    "2044": "mar",
    "2045": "said to ",
    "2046": "ple",
    "2047": "Em",
    "2048": "little girl called ",
    "2049": "fus",
    "2050": "delicious ",
    "2051": "keep",
    "2052": "s of ",
    "2053": "kitty ",
    "2054": "frog ",
    "2055": "disa",
    "2056": "magic ",
    "2057": "icy ",
    "2058": "est",
    "2059": " old ",
    "2060": "buc",
    "2061": "sy ",
    "2062": ". It was so ",
    "2063": "what was ",
    "2064": "away, ",
    "2065": "! Once there was a ",
    "2066": "spott",
    "2067": "lit ",
    "2068": "When the ",
    "2069": "pur",
    "2070": "ook ",
    "2071": "farm",
    "2072": "e and the ",
    "2073": "were so ",
    "2074": "Le",
    "2075": "key ",
    "2076": "des",
    "2077": "ser",
    "2078": "shir",
    "2079": "ed that the ",
    "2080": "you, ",
    "2081": ", but the ",
    "2082": "wea",
    "2083": "to help ",
    "2084": "rown ",
    "2085": "out and ",
    "2086": "saw that ",
    "2087": "close ",
    "2088": "excited and ",
    "2089": "as they ",
    "2090": "l and ",
    "2091": ", it ",
    "2092": "gho",
    "2093": "dream",
    "2094": "wel",
    "2095": "come",
    "2096": "hid",
    "2097": "bunny ",
    "2098": "like the ",
    "2099": "Fluff",
    "2100": "small",
    "2101": "! It ",
    "2102": "lots of fun",
    "2103": "rain",
    "2104": "in the forest",
    "2105": "something special ",
    "2106": "place",
    "2107": "couldn't wait to ",
    "2108": "mus",
    "2109": "lady ",
    "2110": "runn",
    "2111": "he said",
    "2112": "when the ",
    "2113": "reliev",
    "2114": "lesson ",
    "2115": "new",
    "2116": "eventually ",
    "2117": "something",
    "2118": "treat",
    "2119": "swee",
    "2120": "had never ",
    "2121": "curious",
    "2122": "explain",
    "2123": "th and ",
    "2124": "Char",
    "2125": "ber",
    "2126": "ener",
    "2127": "imag",
    "2128": "imagin",
    "2129": "colour",
    "2130": "in the garden ",
    "2131": "return",
    "2132": "was walking ",
    "2133": "scared",
    "2134": "stopped and ",
    "2135": "was so excited and ",
    "2136": "was so proud of ",
    "2137": "3 ",
    "2138": "3 year",
    "2139": "had to ",
    "2140": "bright",
    "2141": "i ",
    "2142": "gras",
    "2143": "qui",
    "2144": "ing. He ",
    "2145": "end of the ",
    "2146": "head",
    "2147": "ted the ",
    "2148": "parents ",
    "2149": "thanked her ",
    "2150": "Molly",
    "2151": "which ",
    "2152": "yellow ",
    "2153": "eyes ",
    "2154": "children ",
    "2155": ".  The next ",
    "2156": "sing",
    "2157": "looked up ",
    "2158": "who",
    "2159": "share ",
    "2160": "finish",
    "2161": "tree and ",
    "2162": "ab ",
    "2163": "help the ",
    "2164": "in a big ",
    "2165": ", but it ",
    "2166": ". From that day ",
    "2167": ".  Tim ",
    "2168": "his friend",
    "2169": "catch ",
    "2170": "was too ",
    "2171": "even more ",
    "2172": "t. He ",
    "2173": "here ",
    "2174": "dream ",
    "2175": "find a ",
    "2176": "ny",
    "2177": "she wanted to ",
    "2178": ". They had ",
    "2179": "ry, ",
    "2180": "for help",
    "2181": "poc",
    "2182": ". His mom ",
    "2183": "mis",
    "2184": "pond",
    "2185": "elephant ",
    "2186": "twi",
    "2187": "hun",
    "2188": "ball ",
    "2189": "ty ",
    "2190": "ready ",
    "2191": "food",
    "2192": "loved the ",
    "2193": "gather",
    "2194": "ance ",
    "2195": "stori",
    "2196": "Oh",
    "2197": "that she had ",
    "2198": "ful and ",
    "2199": "?\"",
    "2200": "voice",
    "2201": "ant",
    "2202": "with a big ",
    "2203": "naughty ",
    "2204": "clean ",
    "2205": "ement",
    "2206": "squirrel ",
    "2207": "What is ",
    "2208": ". P",
    "2209": "two friends ",
    "2210": "red",
    "2211": "s, and ",
    "2212": "one day ",
    "2213": "wanted to go ",
    "2214": "Mary ",
    "2215": "angr",
    "2216": "discover",
    "2217": "ner ",
    "2218": "cand",
    "2219": "'d ",
    "2220": "sho",
    "2221": "vil",
    "2222": "villa",
    "2223": "whole ",
    "2224": ". They both ",
    "2225": "in the park ",
    "2226": ".  B",
    "2227": "home, ",
    "2228": "freez",
    "2229": "friends, ",
    "2230": "sun was ",
    "2231": ".  After ",
    "2232": "house ",
    "2233": "sunny ",
    "2234": "might ",
    "2235": "put her ",
    "2236": "hand ",
    "2237": "bott",
    "2238": "peace",
    "2239": "Sarah",
    "2240": "let's ",
    "2241": "spe",
    "2242": "cel",
    "2243": ", and he ",
    "2244": "love ",
    "2245": "Mia ",
    "2246": ". Insid",
    "2247": "Hello",
    "2248": "thank",
    "2249": "tiny ",
    "2250": "rela",
    "2251": "y the ",
    "2252": "clapped ",
    "2253": "sea",
    "2254": ". One day, she ",
    "2255": "in and ",
    "2256": "game",
    "2257": "oke ",
    "2258": "then she ",
    "2259": "ed it",
    "2260": "sad and ",
    "2261": "rubb",
    "2262": "push",
    "2263": "flower ",
    "2264": "danger",
    "2265": "was scared and ",
    "2266": "very much",
    "2267": ", but she ",
    "2268": "zz",
    "2269": ". The boy ",
    "2270": "showed her ",
    "2271": "e's ",
    "2272": "dinner",
    "2273": "'ll ",
    "2274": "ry",
    "2275": "ed by ",
    "2276": "was feeling ",
    "2277": "Once upon a ti",
    "2278": "admir",
    "2279": "poin",
    "2280": "animal ",
    "2281": "his mum ",
    "2282": "dir",
    "2283": "such a ",
    "2284": "disapp",
    "2285": ". So he ",
    "2286": "smiled, ",
    "2287": "over",
    "2288": "LetÃ¢â¬â¢s ",
    "2289": "tired",
    "2290": "Andy ",
    "2291": "ing a ",
    "2292": "sky ",
    "2293": "and she ",
    "2294": ".  Molly ",
    "2295": "was amaz",
    "2296": "luck",
    "2297": "add",
    "2298": "ama ",
    "2299": "tra",
    "2300": "Mum",
    "2301": "lec",
    "2302": "sky and ",
    "2303": "na ",
    "2304": "gave her ",
    "2305": "giant ",
    "2306": "three years old",
    "2307": "proud",
    "2308": "ul",
    "2309": "Can you ",
    "2310": "Her mom ",
    "2311": "ever after",
    "2312": "shor",
    "2313": "warm",
    "2314": "top ",
    "2315": "water and ",
    "2316": "learned that ",
    "2317": "lake",
    "2318": "it could ",
    "2319": "soon",
    "2320": "was so happy that she ",
    "2321": "had a great ",
    "2322": "ble ",
    "2323": "got to the ",
    "2324": "st and ",
    "2325": "visit ",
    "2326": "hole ",
    "2327": "was very happy",
    "2328": "had an idea",
    "2329": "chas",
    "2330": "cked ",
    "2331": "fell ",
    "2332": "moral ",
    "2333": "if he could ",
    "2334": ". Toge",
    "2335": "hug ",
    "2336": "Wow",
    "2337": "pot ",
    "2338": ". One day, he ",
    "2339": "told him ",
    "2340": ". One day, the ",
    "2341": "think ",
    "2342": "gave him",
    "2343": "pretend",
    "2344": "nodded and ",
    "2345": "this",
    "2346": "cream ",
    "2347": "ancient ",
    "2348": "balloon",
    "2349": "himself ",
    "2350": "move",
    "2351": "flying ",
    "2352": "Jack and Jill ",
    "2353": ". This ",
    "2354": ". We ",
    "2355": "dress",
    "2356": "talk ",
    "2357": "inter",
    "2358": "wondered ",
    "2359": "to a ",
    "2360": "explore",
    "2361": "ed, Ã¢â¬Å",
    "2362": "tÃ¢â¬â¢s ",
    "2363": "?Ã¢â¬ ",
    "2364": ", and it ",
    "2365": "stu",
    "2366": "made it ",
    "2367": "cur",
    "2368": "Jim",
    "2369": "forgot ",
    "2370": "s.  The ",
    "2371": "that was ",
    "2372": "answ",
    "2373": "gentle ",
    "2374": "ers ",
    "2375": "quiet",
    "2376": ". He was so ",
    "2377": "beautiful",
    "2378": "another ",
    "2379": ".  Finally, ",
    "2380": "decided to take a ",
    "2381": ". Wi",
    "2382": "on an adventure",
    "2383": "arriv",
    "2384": ". Everyone was ",
    "2385": "illi",
    "2386": "to stay ",
    "2387": "Dad ",
    "2388": "anny ",
    "2389": "Frank ",
    "2390": "ames ",
    "2391": "bath",
    "2392": "cave",
    "2393": "son ",
    "2394": "blanket",
    "2395": "jun",
    "2396": "butt",
    "2397": "we can ",
    "2398": "ing her ",
    "2399": "leaves ",
    "2400": "under ",
    "2401": "it was time to go ",
    "2402": "happily ever after",
    "2403": "lease",
    "2404": "I will ",
    "2405": "cher",
    "2406": "bran",
    "2407": "sweet ",
    "2408": ".  As ",
    "2409": "dog",
    "2410": "castle",
    "2411": "clean",
    "2412": "was sad",
    "2413": ". In the ",
    "2414": "hurt ",
    "2415": "wise ",
    "2416": "hurt",
    "2417": "thought for a ",
    "2418": ". Mia ",
    "2419": "with lots of ",
    "2420": "had a wonderful ",
    "2421": "queen ",
    "2422": "work ",
    "2423": "to do ",
    "2424": "scho",
    "2425": "school",
    "2426": "blue ",
    "2427": ". Tom ",
    "2428": "brok",
    "2429": "food ",
    "2430": "story is ",
    "2431": "birth",
    "2432": "ious",
    "2433": "tired ",
    "2434": "blue",
    "2435": "cap",
    "2436": "lun",
    "2437": "What's ",
    "2438": "ange ",
    "2439": "his mom",
    "2440": "to me",
    "2441": "the most ",
    "2442": "y, and ",
    "2443": "it. She ",
    "2444": "reached the ",
    "2445": "decided ",
    "2446": "Mommy, ",
    "2447": "strange",
    "2448": ".  So",
    "2449": "ite",
    "2450": "shopkeep",
    "2451": "at her ",
    "2452": "touch ",
    "2453": "wish",
    "2454": "fron",
    "2455": "ventually, ",
    "2456": "that they ",
    "2457": ".  The end",
    "2458": "taking ",
    "2459": "dist",
    "2460": "was so excited that ",
    "2461": "he heard a ",
    "2462": "over to the ",
    "2463": "ed out ",
    "2464": "tight",
    "2465": "vin",
    "2466": "of his ",
    "2467": "over the ",
    "2468": "morning ",
    "2469": "neighb",
    "2470": "name was ",
    "2471": ". As she ",
    "2472": "strat",
    "2473": "didn't know what ",
    "2474": "moved ",
    "2475": "tired and ",
    "2476": "door ",
    "2477": "bigger and ",
    "2478": "Ã¢â¬â",
    "2479": "minut",
    "2480": "beet",
    "2481": "patient ",
    "2482": "ank",
    "2483": "a great ",
    "2484": "dark",
    "2485": "wav",
    "2486": "engin",
    "2487": "take the ",
    "2488": "hugged her ",
    "2489": "though ",
    "2490": "helic",
    "2491": "helicop",
    "2492": "lar",
    "2493": "viol",
    "2494": "chick",
    "2495": "bow ",
    "2496": "squash",
    "2497": "hipp",
    "2498": "lived happily ever after",
    "2499": "swimm",
    "2500": "I don't ",
    "2501": "cold",
    "2502": "And ",
    "2503": "they all ",
    "2504": ". Once upon a time, there was a little girl named ",
    "2505": "was very happy ",
    "2506": "had a lot of ",
    "2507": "town",
    "2508": "celebr",
    "2509": "play with his ",
    "2510": "moment ",
    "2511": ".\"  So ",
    "2512": "first",
    "2513": "Sam",
    "2514": "stand",
    "2515": "epen",
    "2516": "ependa",
    "2517": "park, ",
    "2518": "In",
    "2519": "mid",
    "2520": "for you",
    "2521": "new friend",
    "2522": "of friends",
    "2523": "mush",
    "2524": "safe and ",
    "2525": "s and the ",
    "2526": "so much fun ",
    "2527": "boo",
    "2528": "get the ",
    "2529": "mom and ",
    "2530": "ball",
    "2531": "gum ",
    "2532": "it for ",
    "2533": "mix",
    "2534": "it. The ",
    "2535": "lef",
    "2536": ". He looked ",
    "2537": ", and she ",
    "2538": "sl",
    "2539": "emb",
    "2540": "embar",
    "2541": "embarr",
    "2542": "house and ",
    "2543": "craw",
    "2544": "close",
    "2545": "pink ",
    "2546": "it was",
    "2547": "orange ",
    "2548": "saw a small ",
    "2549": "wid",
    "2550": "said to the ",
    "2551": "ice-",
    "2552": "saw an ",
    "2553": "This ",
    "2554": "so much fun",
    "2555": "ward",
    "2556": "high",
    "2557": "again and ",
    "2558": "tain ",
    "2559": ".  Then ",
    "2560": "match",
    "2561": ". Everywhere ",
    "2562": "usu",
    "2563": "delight",
    "2564": "bur",
    "2565": ".  When she ",
    "2566": "! E",
    "2567": "excited ",
    "2568": "pill",
    "2569": ". He had ",
    "2570": "matter ",
    "2571": "done ",
    "2572": "he couldn't ",
    "2573": "nic",
    "2574": "interest",
    "2575": "3 year old ",
    "2576": "asked",
    "2577": ". Ã¢â¬Å",
    "2578": "ise ",
    "2579": "take care ",
    "2580": "rest",
    "2581": "s. The ",
    "2582": "wom",
    "2583": "else ",
    "2584": "across the ",
    "2585": "woke ",
    "2586": "near ",
    "2587": "continued to ",
    "2588": "can't ",
    "2589": "old man",
    "2590": "accep",
    "2591": "curious and ",
    "2592": "up to ",
    "2593": "wall",
    "2594": "mean ",
    "2595": "ed him ",
    "2596": "pir",
    "2597": "ph",
    "2598": "collec",
    "2599": ".  From then ",
    "2600": "prac",
    "2601": "prince ",
    "2602": "furry ",
    "2603": ". Daisy ",
    "2604": ".  An",
    "2605": "as a ",
    "2606": "lonel",
    "2607": "pebb",
    "2608": "wander",
    "2609": "lot ",
    "2610": "bee",
    "2611": ".  Lily ",
    "2612": "eep ",
    "2613": "alth",
    "2614": "him. He ",
    "2615": "near the ",
    "2616": ". All the ",
    "2617": "trees",
    "2618": "without ",
    "2619": "rac",
    "2620": "owl ",
    "2621": ". Now ",
    "2622": "driver ",
    "2623": "hear ",
    "2624": "ture",
    "2625": ", a ",
    "2626": "anymore",
    "2627": "midd",
    "2628": "Amy ",
    "2629": "night ",
    "2630": "the best of friends",
    "2631": "relax",
    "2632": "teach ",
    "2633": "picked up the ",
    "2634": "stret",
    "2635": "to play with",
    "2636": "met ",
    "2637": "ce, ",
    "2638": "his friend ",
    "2639": ". Sam ",
    "2640": "river",
    "2641": "wished ",
    "2642": "ail",
    "2643": "were very ",
    "2644": "moral of the ",
    "2645": "moral of the story is ",
    "2646": "mysterious ",
    "2647": "playing and ",
    "2648": "ly and ",
    "2649": "You can ",
    "2650": "from a ",
    "2651": "learned ",
    "2652": "not to ",
    "2653": "oup ",
    "2654": "thought it was ",
    "2655": "El",
    "2656": "twist",
    "2657": "ran away",
    "2658": "to make a ",
    "2659": "cri",
    "2660": ". It looked ",
    "2661": "picked it ",
    "2662": "piec",
    "2663": "ive ",
    "2664": "grow",
    "2665": "ran to the ",
    "2666": "kes ",
    "2667": "flowers ",
    "2668": "enough ",
    "2669": ".  When they ",
    "2670": "asked her mom ",
    "2671": "buy ",
    "2672": ". He was always ",
    "2673": "wrong ",
    "2674": "seen a ",
    "2675": "eag",
    "2676": "it would be ",
    "2677": "huge ",
    "2678": "Let's go ",
    "2679": "shel",
    "2680": "why the ",
    "2681": "ouldn't ",
    "2682": ". It's ",
    "2683": ". An",
    "2684": "ines",
    "2685": "donÃ¢â¬â¢t ",
    "2686": "who liked to ",
    "2687": "uni",
    "2688": "cater",
    "2689": "caterpill",
    "2690": "brave and ",
    "2691": "she",
    "2692": "nÃ¢â¬â¢t ",
    "2693": "said it was ",
    "2694": "disappear",
    "2695": "leaves",
    "2696": "stood ",
    "2697": "there was an ",
    "2698": "her. She ",
    "2699": "Oh ",
    "2700": "never seen ",
    "2701": "meadow ",
    "2702": "snow ",
    "2703": "sailed ",
    "2704": "comfort",
    "2705": "shining ",
    "2706": "gathered ",
    "2707": "es of ",
    "2708": "said, \"It's ",
    "2709": "trip",
    "2710": "Rach",
    "2711": "Rachel ",
    "2712": "along ",
    "2713": "smiled at ",
    "2714": "my's ",
    "2715": "farmer ",
    "2716": "hill",
    "2717": "fiel",
    "2718": ". There was a ",
    "2719": "was the ",
    "2720": "tau",
    "2721": "taught ",
    "2722": "zy ",
    "2723": "join ",
    "2724": "smile on her ",
    "2725": "asure",
    "2726": "exciting ",
    "2727": "pet",
    "2728": "IÃ¢â¬â¢",
    "2729": "break",
    "2730": "snack",
    "2731": "remind",
    "2732": "ge and ",
    "2733": "gest ",
    "2734": "love",
    "2735": "ski",
    "2736": "int",
    "2737": "circle",
    "2738": "eter",
    "2739": "frustrat",
    "2740": "onto the ",
    "2741": ". Sarah ",
    "2742": "Whenever ",
    "2743": "bell ",
    "2744": "started to cry",
    "2745": ". Jimmy ",
    "2746": "Grand",
    "2747": "rest ",
    "2748": "made the ",
    "2749": "Emma ",
    "2750": "sit ",
    "2751": "block",
    "2752": "horse ",
    "2753": "dol",
    "2754": "jung",
    "2755": "ophi",
    "2756": "tun",
    "2757": "person ",
    "2758": "fix ",
    "2759": "fix",
    "2760": "in the sun",
    "2761": "feel better",
    "2762": "Thank you, ",
    "2763": ". Once upon a time, in a ",
    "2764": "small and ",
    "2765": "wind",
    "2766": "told the ",
    "2767": "found a big ",
    "2768": "they could ",
    "2769": "ak ",
    "2770": ".  One day, a ",
    "2771": "together. They ",
    "2772": "was sad ",
    "2773": "pulled ",
    "2774": ", she would ",
    "2775": "race",
    "2776": "standing ",
    "2777": "please",
    "2778": "ran and ",
    "2779": "with him",
    "2780": "inside the ",
    "2781": ". The bird ",
    "2782": "age ",
    "2783": "middle ",
    "2784": "soft ",
    "2785": "pick",
    "2786": "You're ",
    "2787": ". She had a ",
    "2788": "ing. The ",
    "2789": "went back to ",
    "2790": "loved to play ",
    "2791": "word",
    "2792": ".  Tom ",
    "2793": "table",
    "2794": "them all ",
    "2795": "f you ",
    "2796": "thought about ",
    "2797": "late",
    "2798": "Sue ",
    "2799": "helped ",
    "2800": "her friends ",
    "2801": "build ",
    "2802": "place to ",
    "2803": "hole",
    "2804": "mouse",
    "2805": "they both ",
    "2806": "eas",
    "2807": "it again",
    "2808": "was not ",
    "2809": "own ",
    "2810": "embarrass",
    "2811": "head ",
    "2812": "box and ",
    "2813": "adventures",
    "2814": "clapp",
    "2815": "?\" asked ",
    "2816": "My ",
    "2817": ",\" he said",
    "2818": "Can I ",
    "2819": "patient",
    "2820": "life",
    "2821": "inf",
    "2822": "outside to ",
    "2823": "ce",
    "2824": "taste ",
    "2825": "that day",
    "2826": "Grace ",
    "2827": "spread ",
    "2828": "wing",
    "2829": "Billy ",
    "2830": ".  Jack ",
    "2831": "done",
    "2832": ",\" she ",
    "2833": "confus",
    "2834": "Charli",
    "2835": "sweet",
    "2836": "mil",
    "2837": ". But then ",
    "2838": "towards the ",
    "2839": "Thank you ",
    "2840": "heard a loud ",
    "2841": "bru",
    "2842": "very special ",
    "2843": "lla ",
    "2844": "coming from the ",
    "2845": "noise ",
    "2846": "nothing ",
    "2847": "daddy ",
    "2848": "Don't wor",
    "2849": "pet ",
    "2850": "mirr",
    "2851": "long time",
    "2852": "cold ",
    "2853": ".  His ",
    "2854": "obed",
    "2855": "Come ",
    "2856": "looked up and ",
    "2857": "exploring the ",
    "2858": "fairy ",
    "2859": "for hour",
    "2860": "way to ",
    "2861": ". There were ",
    "2862": "then",
    "2863": "moment",
    "2864": "playing with her ",
    "2865": "faster",
    "2866": "seemed to ",
    "2867": "foot",
    "2868": "mother",
    "2869": "down on the ",
    "2870": "could see ",
    "2871": "ere",
    "2872": "tive ",
    "2873": "ie ",
    "2874": "John and ",
    "2875": "it was so ",
    "2876": "ed it and ",
    "2877": "one, ",
    "2878": "adventure ",
    "2879": ".  The little boy ",
    "2880": "kids ",
    "2881": "was surpris",
    "2882": "oce",
    "2883": "rose ",
    "2884": ". He was very ",
    "2885": "was so happy to have ",
    "2886": ".  Mom ",
    "2887": "enjoyed their ",
    "2888": "playground",
    "2889": ". When she ",
    "2890": "doc",
    "2891": "bed ",
    "2892": "Mi",
    "2893": "mun",
    "2894": "Mummy ",
    "2895": "gener",
    "2896": "parad",
    "2897": "one and ",
    "2898": "fold",
    "2899": "strong and ",
    "2900": "and her ",
    "2901": "carro",
    "2902": "sit",
    "2903": "lonely ",
    "2904": "brother",
    "2905": "eter ",
    "2906": "Ali",
    "2907": "ma ",
    "2908": "times ",
    "2909": "plant ",
    "2910": "scared. He ",
    "2911": "splash",
    "2912": "that he had ",
    "2913": "Fre",
    "2914": ". The little boy ",
    "2915": "sub",
    "2916": "flash",
    "2917": "ther, they ",
    "2918": "needed ",
    "2919": "crab ",
    "2920": "e. The ",
    "2921": "started to feel ",
    "2922": "cherry ",
    "2923": "it had ",
    "2924": "ces",
    "2925": "and a ",
    "2926": ", there was a ",
    "2927": "brown ",
    "2928": "ak",
    "2929": "rolled ",
    "2930": "home. He ",
    "2931": "said goodbye to the ",
    "2932": ". When they ",
    "2933": "Max",
    "2934": "can I ",
    "2935": "litt",
    "2936": ". As he ",
    "2937": "together, ",
    "2938": "ependable ",
    "2939": "door and ",
    "2940": "window",
    "2941": "middle of the ",
    "2942": "ghost",
    "2943": "course",
    "2944": "joy ",
    "2945": "safe ",
    "2946": "mushroom ",
    "2947": "ed, the ",
    "2948": "in the forest ",
    "2949": "say ",
    "2950": "bag ",
    "2951": "important to ",
    "2952": "kno",
    "2953": ". He felt ",
    "2954": "Sue",
    "2955": "ue and ",
    "2956": "kind and ",
    "2957": ". Once upon a time, there was a little boy named ",
    "2958": "his dad ",
    "2959": "present",
    "2960": "had a big ",
    "2961": "y. The ",
    "2962": "smelly ",
    "2963": "up a ",
    "2964": "dea",
    "2965": "take it ",
    "2966": "him. She ",
    "2967": "dry ",
    "2968": "cool ",
    "2969": "igz",
    "2970": "ran around the ",
    "2971": "hile ",
    "2972": "didn't want to ",
    "2973": "looked very ",
    "2974": "continued ",
    "2975": "search ",
    "2976": "mess",
    "2977": "wrong",
    "2978": "cut ",
    "2979": "yum",
    "2980": "ence ",
    "2981": "flowers",
    "2982": "ned ",
    "2983": "teddy ",
    "2984": "iss",
    "2985": "ice-cream ",
    "2986": "truck",
    "2987": "ight ",
    "2988": "her and ",
    "2989": "there were two friends, ",
    "2990": "use",
    "2991": ".  The boy ",
    "2992": "e, he ",
    "2993": "ed. \"",
    "2994": "well",
    "2995": "one of the ",
    "2996": "unusu",
    "2997": ". She was three years old and ",
    "2998": ". She was so ",
    "2999": "up, "
  }
}